/**
  ******************************************************************************
  * @file    network_1_data_params.c
  * @author  AST Embedded Analytics Research Platform
  * @date    Fri Aug  4 11:28:00 2023
  * @brief   AI Tool Automatic Code Generator for Embedded NN computing
  ******************************************************************************
  * Copyright (c) 2023 STMicroelectronics.
  * All rights reserved.
  *
  * This software is licensed under terms that can be found in the LICENSE file
  * in the root directory of this software component.
  * If no LICENSE file comes with this software, it is provided AS-IS.
  ******************************************************************************
  */

#include "network_1_data_params.h"


/**  Activations Section  ****************************************************/
ai_handle g_network_1_activations_table[1 + 2] = {
  AI_HANDLE_PTR(AI_MAGIC_MARKER),
  AI_HANDLE_PTR(NULL),
  AI_HANDLE_PTR(AI_MAGIC_MARKER),
};




/**  Weights Section  ********************************************************/
AI_ALIGNED(32)
const ai_u64 s_network_1_weights_array_u64[17413] = {
  0xbe92a48bbef0fb9aU, 0x3dcc3468bd8834adU, 0x3e169d9b3e1d50b1U, 0x3c5a15cb3e96f1b5U,
  0x3ea3654a3db2900cU, 0xbdca5cacbdc384c8U, 0xbd68c2603e771261U, 0x3ea6978dbe90370eU,
  0xbf097ffebd9c5664U, 0x3e81b5473db55b4dU, 0xbe90967d3eff2ab2U, 0x3ead369c3d7909beU,
  0xbf114c37bf166dd6U, 0x3ccb7f2fbebf7446U, 0x3bc227ef3dd99b19U, 0x3e203e3e3d8a7f02U,
  0xbddb41623de438d4U, 0x3cefdcf43e4623ebU, 0x3d13c5d8bc8aa23cU, 0x3e837c0f3e837028U,
  0x3d599ecc3e97f11fU, 0xbec7a5c3be4d9289U, 0x3e15a522be9ea0daU, 0x3c8b8322bd45154dU,
  0x3dfcf81b3ddcb39cU, 0xbe4900433e71a760U, 0x3da4e254be1b3557U, 0xbec47da8bca8c9b1U,
  0x3e66cc95beca0bacU, 0xbc85987a3e72f674U, 0x3e1b7958bb057716U, 0xbdfbb8403e7160a7U,
  0x3dfad53a3dbbed65U, 0xbcb8f5523dc8b941U, 0x3be521603d5bbe8eU, 0xbde956653e43ec2eU,
  0xbc893d103e078fbcU, 0x3df6038abe495a99U, 0x3e479dc93dd39aebU, 0x3d972703be33b8f2U,
  0xbe11f7f53cd8d878U, 0x3d05a28f3e02bd84U, 0xbd6d0f9cbeaa3434U, 0x3da541323e7b59d8U,
  0x3d99f0e13cf9bd6aU, 0xbec78b3bbead39dcU, 0xbe2b5c8dbe335c44U, 0x3e9b31183dd9f2fdU,
  0x3eae4d483e5c3731U, 0xbdf729263d93f531U, 0xbe979faabecab5cbU, 0xbcd1a5353da6854aU,
  0x3e8438a7bd5f6376U, 0x3e6f23d93e93faddU, 0x3e32231d3d47706cU, 0xbe89fdab3d237ca1U,
  0x3eb9b0293c8eb9f2U, 0xbd6faed0bf11b9bbU, 0x3e8a9c963ea3d2e0U, 0x3ea2f7cd3e9f6a0cU,
  0x3d2b322f3df2945aU, 0xbefb8894bcc9b76fU, 0xbeb4b981becf04c6U, 0xbe6f4b1bbf33d1f7U,
  0xbf0829413e2b2b94U, 0x3eab1a853bc96262U, 0x3c9530ddbebef708U, 0x3e8c12c03ea7a81aU,
  0xbc9308e8bd838aa9U, 0xbeebe4dabd8c89e3U, 0x3e975409be0d4fbdU, 0x3dccf3623def09c0U,
  0x3e58ae74bdc3666dU, 0x3e252a113e61ec1aU, 0xbe6201033dcf1690U, 0x3d6295123d872888U,
  0xbee03550be5c9fd4U, 0x3e1d9208bdbd9ea3U, 0x3e9f6dd0bc4233e0U, 0xbcef9dab3e1e6488U,
  0xbe806dd43e9c955aU, 0xbe90005ebea91d85U, 0xbdc70142bdb2e101U, 0x3e863618bd88a6afU,
  0x3d90de833da99731U, 0xbd4559463e86582bU, 0x3d859af83e4878faU, 0x3e3eb2ce3e390703U,
  0x3c4e86c8be5f1496U, 0xbeb1f4403e2d734eU, 0xbda423b93d8757e2U, 0x3e558cfcbedee41cU,
  0xbe84bad73dd0859cU, 0x3e96893e3dde6c27U, 0x3e2eaeb03e58ccbaU, 0xbe1299803e110bf5U,
  0xbd2bf44ebcddca45U, 0x3dd52a16bcc6e59cU, 0x3e1956c23dd7aa24U, 0x3e69cab1bc964c14U,
  0x3d199dc33e8578caU, 0x3e74301d3d65ec70U, 0xbec8a847bf076385U, 0x3e07932e3dcf75d1U,
  0xbd264b1e3dd63ba6U, 0x3d67469a3c8b692fU, 0xbdcf39223d5825aaU, 0x3d8b41083e15bb0cU,
  0xbce4bf91bc81abe1U, 0x3dbce8fe3dac37cfU, 0x3d46fddbbdc222faU, 0xbe3194293dff458aU,
  0xbea239ce3de5414dU, 0x3e47259dbdb3644dU, 0x3ed5adc23e7c65faU, 0x3c4093dd3df56c82U,
  0xbebdc317be762629U, 0xbe6fbd10be914b5eU, 0x3b127ad2bdf8a765U, 0xbd28e7dcbd7577bfU,
  0x3e4bd9e43eaa1942U, 0x3e07a7853e268aeeU, 0x3dcf5b22bcdcc5d3U, 0x3c870bed3d973aa4U,
  0x3e1d6121bdcf3128U, 0x3db787d83d32547fU, 0x3e9d51e03e77bdceU, 0xbf33e2cd3d66f448U,
  0xbf14ef97bf0d0f1dU, 0xba9ebf803dd2b86bU, 0xbc88a05f3e28729cU, 0xbee887673daea7d6U,
  0x3eb300b73e13c1ceU, 0xbd530ae9bed1b384U, 0x3dda68d33eccdebcU, 0x3d86522c3e0efb1aU,
  0x3d885f58be959647U, 0x3b9d0fc93e9890afU, 0x3d3387d0bec9c6cdU, 0xbdba3e743e503732U,
  0x3daa19073e6600dfU, 0x3e99deed3e786f94U, 0x3eaa9c6ebe3428e6U, 0xbee6a479be74713cU,
  0xbbd3fba7bc71cfbdU, 0xbd9f5dfd3cde5b2bU, 0xbd009e81bb0aed18U, 0xbdea70f7bd2658b3U,
  0xbd8f8125be0f0302U, 0xbc05670bbd2b3db4U, 0x3d165d1abd35f854U, 0xbd7f77b63e1592b5U,
  0xbdd5ec20bdc30ddcU, 0xbcda3449bcf5f1ddU, 0xbc9ae0afbdfd6b2dU, 0xbda07a05bd09ae7aU,
  0xbd52f9b6bd3697caU, 0xbd9e0459bb8a989fU, 0xbd80c67e3e35edeaU, 0xbd2277bbbdf2c289U,
  0xbdeef925bd6b3452U, 0x3dae48fa3e52c95eU, 0x3d8438ad3d56e289U, 0xbd2a071b3d5f4931U,
  0xba9151a03e10d19dU, 0xbcb14c65bd35ddf0U, 0x3ccc3576bd093cf8U, 0x3e32b892bd46e2faU,
  0x3d331e5bbbf95c5eU, 0x3d3eaae2bb396ba3U, 0x3da3016e3dfd8fffU, 0x3de4071f3e0c8a7fU,
  0x3d0b82e3bd94d199U, 0x3d91af6e3d7c1b75U, 0x3db56c35bdfc89faU, 0xbd94ce893c14421aU,
  0xbe331d4bbc29caf7U, 0xbb77c4e6bc7bd435U, 0x3d8485c4bd422ad9U, 0xbdc220ebbd85857dU,
  0xbd6ce63cbd009579U, 0xbc58e8213d99c88aU, 0xbde40d8bbdb51d20U, 0x3e1beae5bdce3425U,
  0x3d099575bc5ed782U, 0x3d5f02a2bcc15d32U, 0xbcf11460bc342b5fU, 0x3c092623bbe4a2f4U,
  0x3de933c93cb2e175U, 0x3cb1f265bd312693U, 0x3da672a7be0f0a13U, 0xbcd8b1403d6d7b90U,
  0xbcbbd8d63d613cb3U, 0xbd7ed029bd82d029U, 0x3de14f143de09ea8U, 0x3de0c7673d2a20e4U,
  0xbbf0cf423d239366U, 0x3dcb58063e322b55U, 0xbd6ca8243dae3941U, 0x3e36a026be0d66e0U,
  0x3e10245f3e0b335eU, 0x3de9abf23d6e4e20U, 0x3c364f5c3e09d9bbU, 0x3d7358cfbc163057U,
  0x3ee0345a3cbc7eeaU, 0xbbccf78a3dccece5U, 0x3e336db7bd0d51d7U, 0x3daca8c23d704b75U,
  0x3a8ad14abdb83c76U, 0xbd3d98a9bde2f1dbU, 0x3d77d9e73d0ef538U, 0x3df53954be229a02U,
  0x3d3f3758bd5e2d96U, 0xbdc01a00be043c79U, 0xbd28f7b3be10b397U, 0xbe2b1eddbde1b743U,
  0x3c4c8aa63dbf5f8bU, 0x3daf593cbd87e9e1U, 0xbdb64c3cbe458d9cU, 0xbc2d2c5d3d5ac8b9U,
  0xbcd8dd153cc51d1bU, 0x3d6fe644bd89339fU, 0xbe457f45be6262bfU, 0x3dbb5436bd85da0aU,
  0xbd7c3073be5c4bc1U, 0x3ce3acb13dd1c391U, 0x3de3f22bbd35a778U, 0xbdb1721cbdb426b0U,
  0xbd467a73bd0fea4fU, 0xbe353407be8edc6aU, 0x3d8e5013bc3bdafeU, 0xbe02c0e5be21d736U,
  0xbe049f82bd89f718U, 0xbc4fe0a5be3758a5U, 0xbdd93b073da008dbU, 0xbd182c973dfbbf2aU,
  0xbe1833263b49a0b0U, 0x3d0669a1bcff5331U, 0x3d8b9f68bd6623e8U, 0xbdd1da9c3c036c41U,
  0x3d8a2c30bde58392U, 0x3bcaa3573e628438U, 0xbd45e8a8be269625U, 0xbc6bbb833ddca02eU,
  0xbc6594b33ddd67bbU, 0xbda14d39be601971U, 0xbe39ece83e2b5faeU, 0x3db3c1c0bd860917U,
  0xbe14165cbcaecb2aU, 0x3dce8aabbdaa2e4aU, 0x3deacf873db9c071U, 0xbd0b68bb3df9551cU,
  0xbe8d6f013cb0c478U, 0x3ca6699dbdc3f185U, 0x3e8f8165be89b654U, 0xbe275da03dec2d2fU,
  0x3e15baf9be9166edU, 0xbe1c0d673c5e793dU, 0xbdfd74d6bd449d5aU, 0xbdb3dd38be8a198aU,
  0xbddbc283bd8ac46eU, 0xbea67419be936ab2U, 0xbaa75c8bbdcb900cU, 0x3d469673be055bf8U,
  0xbbb9fbfe3d20ee5aU, 0x3b9b80c6be2f928fU, 0xbd144b32bdb69053U, 0xbdc84befbd92b513U,
  0x3e2d6906bdec9c02U, 0xbdad8984be888033U, 0xbe8076203dadd9caU, 0x3d9db0e7bc9c6296U,
  0xbdcb2ef6be0d71dfU, 0xbdea5abe3c8f6169U, 0xbd8e93003d2e03a6U, 0xbcb7e1153cd69be6U,
  0x3b529f373d2d94c8U, 0x3b167d98bd7403e0U, 0xbc2bce703dc89113U, 0xbe137cd53b58de23U,
  0xbdb26216bdcef315U, 0xbe0dd319bda129a2U, 0xbe3edf72be725369U, 0xbd6a80f03d41954aU,
  0x3d9b3fe9bd76e2c4U, 0xbd851910bd12ce21U, 0xbe30f961bdfb06dcU, 0xbe0731843c049700U,
  0xbe0a64a2bd709526U, 0xbd98e4f73e648dfcU, 0x3ddd31ef3e6317eaU, 0xbd3046903e587777U,
  0x3b5259b63d8a051aU, 0x3d5e8dffbdb0359bU, 0x3d8e299f3e1e8ab8U, 0xbe9025afbd9af537U,
  0xbe197d8ebb1dd303U, 0x3d81c6a7be46f082U, 0x3d54105f3db6ea8aU, 0x3d86f2a23e2446a6U,
  0x3e506a35bdae0da1U, 0x3d36dc12bd7670bcU, 0x3e54be54be548fbfU, 0xbc8df7583da2a01aU,
  0x3df6dbf83d5ccc80U, 0x3d91c3d3be1e4b60U, 0x3dfd2bd1be921edcU, 0xbca08a343d17e604U,
  0xbd4bf30e3d3d97efU, 0xbd2c83afbdd1f494U, 0xbe7deaf13d7d983cU, 0x3e4545973de2cfc9U,
  0x3d5bcfcd3d57ea35U, 0x3bb99a92bd66f2ebU, 0x3e3d13373db7fccbU, 0x3e204d82bd2fd5f8U,
  0xbe72ad7a3dbcd2aeU, 0x3d193f87bddb59aaU, 0x3e5878573c9440e1U, 0xbd82a47f3dc16cbcU,
  0x3c06c690bd002eafU, 0x3d812c5c3dfb2692U, 0xbccddb50be38f34bU, 0xbd59ece6bc976834U,
  0xbde70fa83d0db902U, 0xbddc9a6ebe105ce6U, 0xbd3590793da42026U, 0xbd414bbe3cffb40eU,
  0xbc9d67643d1172f4U, 0x3dfd58dbbd1fae9bU, 0x3d2415de3e353b51U, 0xbd53c695bd83c303U,
  0xbe3bea8ebb9a4e45U, 0xbbb7ca5ebd1ebb1cU, 0x3dc421fb3d941e37U, 0x3d1a1aa3bcd644d0U,
  0x3e2c80d7bdece4dbU, 0xbe11289e3d4834a3U, 0xbd2b265cbd24eae9U, 0xbe014bcabe01408dU,
  0xbe607223be76c3abU, 0xbd2b7fd8bdb2add4U, 0xbcc8fb8dbdccd04cU, 0x3d2c4a743d56bec4U,
  0xbe3bdeffbdc20994U, 0xbcf16403be09fb6eU, 0x3c10a1633b250637U, 0xbe49fb9abd837dacU,
  0xbd984a12bda51b8bU, 0x3c802157bddb49c7U, 0xbe0c234b3e164023U, 0x3dfa2631be06e11dU,
  0x3e6278323b5fd119U, 0x3e238cb0bc4c8282U, 0x3db30758be3c44e0U, 0x3db48c51b87c6738U,
  0x3d1815713d7dd4eaU, 0x3c8f735ebe2c6931U, 0xbe9c03c93d86ab8fU, 0x3db54dd63e1e78faU,
  0xbcf2d1143ca231f8U, 0x3e347836bcc648d7U, 0x3e038c97bc994e03U, 0x3dad357dbcfcc8ddU,
  0xbd33937a3d583a7aU, 0x3dcbaaf0bdd4ec17U, 0x3e1a4d93be399fcfU, 0x3e1771d13d9a62a0U,
  0x3dcbd729bdb98e3dU, 0x3d8f7b24be0910b5U, 0xbd564433bd86280eU, 0xbc453f42bce53349U,
  0xbd63594f3cef5aeeU, 0xbd93a936bd8f06aaU, 0xbe03efccbc69198aU, 0x3cb6fa3dbd816ae2U,
  0xbdd6df0a3d27bc6bU, 0x3ddc7f1fbd89c050U, 0x3d9b88273e0b72eeU, 0xbd63e84fbe40cc90U,
  0xbdc6194fbd4ed722U, 0x3dd0b710bd9e0dfdU, 0x3de2493ebe166086U, 0x3e48d57d3bd55139U,
  0x3e2b45c3bca46758U, 0xbe878767be19a9acU, 0xbe3920dabe051aafU, 0xbe80958e3d51f69bU,
  0xbe1aaad3be25d8c5U, 0xbb9e8e3fbc941398U, 0xbe10bfb03d6f7a67U, 0x3d1b670b3df7c28eU,
  0xbdcdd4e7be059f5cU, 0xbde02b05bd311276U, 0xbdb5061c3cabde54U, 0xbe0a0f61bdcd6098U,
  0xbe43dec0be00629bU, 0xbe1d6b0b3bcb1ceaU, 0xbc374a9a3d04e9a0U, 0xbcdbf8c4bdb95733U,
  0x3e207812bdbcc416U, 0x3d220b91bdddb22bU, 0x3d7877d4bde40206U, 0x3e33effcbe1ca170U,
  0x3cbb9a643d91f906U, 0xbe1f7bb9bcfb28a2U, 0xbe80810f3dc96bb6U, 0x3d8719c33e5ef410U,
  0x3de7cbe23e57b949U, 0x3e223f44bba19edeU, 0x3e3da7e33e0713dcU, 0x3de5ddeabdfec076U,
  0x3d9fc4ed3df88b9cU, 0x3e09bce0bdfa41bfU, 0x3d895a5fbe9c337bU, 0x3e214c9ebd8f9eb1U,
  0x3e82cebcbe6963f6U, 0x3bb76998be0d1cf6U, 0xbccb02743d225b51U, 0x3aa206b1be0fa9bfU,
  0xbd7cd84fbd9e96e3U, 0xbe8291e2be784819U, 0x3dcbdb1cbdb16031U, 0xbd5ee1163d2be682U,
  0xb9ad999a3c210f22U, 0x3de98cd5be1cb490U, 0x3b365c23bca94d03U, 0x3cb02322be4d2503U,
  0x3e4df26c3bccfa06U, 0x3dd05e22be91236dU, 0xbc42f196be1bd9ddU, 0x3e6da671bd4cf862U,
  0x3d5f21583bcb111aU, 0xbe461c873da7cc5eU, 0xbc92d217bdb2b528U, 0xbe2a39f8be253fd2U,
  0xbd504534be052bdfU, 0xbe26abc03c99c060U, 0x3d0fdef93e0776c2U, 0x3da49ae13e56b746U,
  0xbd89092ebe4c3988U, 0xbdfbcf393dd1220dU, 0xbe4bfad1be220b2aU, 0xbdd55cf93e1bd343U,
  0xbe15012dbd1b3c31U, 0xbe215c0ebe2e5e9dU, 0xbe00d6f3bd0d4615U, 0xbdc5ab9cbda74bceU,
  0xbdbb70813d5b0696U, 0xbe499a6abea9dee3U, 0xbdb5ba59bea5b2daU, 0xbdb56446be4ec701U,
  0x3c92051cbd874849U, 0xbe0c95c1be07dd13U, 0xbeae4fb7bcedfa31U, 0xbd3086953e1efa9eU,
  0xbe05daecbe80e524U, 0xbe8bdc683d9a9aebU, 0xbe288cadbe8ab146U, 0xbe45e9cabdfa92f1U,
  0xbeb2f712bde02b54U, 0xbe0a5fbcbdb566d0U, 0xbe9db686bbc1f3e6U, 0xbe41f09ebe79f192U,
  0xbda2bd2a3df0346dU, 0x3d7f22a3bead6944U, 0xbc435e48bef7619aU, 0x3bd3262bbd9abea0U,
  0x3db4d79fbddbfb04U, 0x3b067c303d2616b2U, 0xbe983749bd45eb87U, 0xbddd9fdd3e30f192U,
  0xbc23c2a13d67df37U, 0xbd8afdc13b1fcba4U, 0x3d00d0ecbda4e3b8U, 0x3d8d53a4be3751fdU,
  0xbe958ac1bd55c6c7U, 0xbbe911e23d16e2f6U, 0xbe2192d03d0384c7U, 0x3d1ad064be0d6963U,
  0x3ca175ebbcccd6a2U, 0x3da02f7cbea82808U, 0x3c98f586be9b5da1U, 0x3bf33b8dbd4bd91aU,
  0xbc93732c3d4f087fU, 0x3c395f433ddf2f2fU, 0xbe9dd5acbd31bd79U, 0x3d2c847a3dde77ffU,
  0x3e0951ec3da4a858U, 0x3e01cf043d2d6d50U, 0xbd54758a3c99df01U, 0x3c72cbfebea48ee8U,
  0xbb688b683c4ac4d0U, 0x3d855d1eba47b28bU, 0x3e06c2bdbb968e1eU, 0x3de72cb23c4297f2U,
  0x3d3078c5bce091c8U, 0xbb9e7bd1be176a62U, 0xbdd06d69be701fc8U, 0xbe2827c8be327347U,
  0x3cd11f5cbe404b50U, 0xbe47628fbd1faa6bU, 0xbe33269bbc030e49U, 0xbe0d45bb3e0fdc8cU,
  0xbddb0647be381126U, 0xbda426d3bd54869dU, 0xbd9e13e6be6ad969U, 0xbded04773d8b2e28U,
  0xbe23d0ecbe0f84b4U, 0xbd8f1fdebdf14fe0U, 0xbe0d32a8bd1133f7U, 0xbe46040dbde73538U,
  0xbd969a643c0de951U, 0x3dc75da5be42cd11U, 0x3dc1c17fbe912e3bU, 0x3d8691383c0e4649U,
  0x3ce3c2ec3de570f7U, 0xbd49f55bbcc0c671U, 0xbe8469aa3c891094U, 0xbe56374c3dbabd89U,
  0x3d2f40ce3ba3c0e4U, 0xbdbbc30e3db2e3f7U, 0x3cf95608bcddad31U, 0x3d211611bd0fa923U,
  0xbe4c8c6c3d13051cU, 0xbccc7e4dbe223b15U, 0xbe07d55abe02775dU, 0xbd9e3f233d74f2a2U,
  0x3e3e1e59bc5e9903U, 0xbb2fc112bebcafd5U, 0xbd7fd526bd2623a2U, 0x3da201e3bdbe4924U,
  0x3da29122bd9711fcU, 0x3d522e68bd09fd2cU, 0xbe6c650dbd5b6f43U, 0xbd8e6d693df0a9dcU,
  0x3e101c6f3cfdc8a0U, 0x3dacbc08bd214069U, 0x3dc90714bd46feb7U, 0xbc72dd01bebe14f9U,
  0x3e14cd52bdadb664U, 0x3c505631bd966e6bU, 0x3d9bbc77be62a459U, 0x3da16a97bc5e620eU,
  0x3ddc83b7bc926bdcU, 0xbc3fb1c3be117a1cU, 0x3cb3f0bfbe24362cU, 0xba216482bdbcdf81U,
  0x3d21a73f3b1c1359U, 0xbdbfbed83b53877bU, 0xbd89f3bb3df6754fU, 0xbdf76c3e3e03cf4bU,
  0xbc61e62ebe514bc7U, 0xbdca93a03a6e781eU, 0x3cc97b27bdb125d3U, 0x3c66533c3d0dfa53U,
  0xbe24bd3a3d2cb77dU, 0xbe37dcbcbc319074U, 0xbe1541d53d032c19U, 0xbdb3e5613b265f8dU,
  0xbd511d9b3d38fa0cU, 0x3dd778abbebcba3eU, 0x3d4e412ebe94ca17U, 0xba3025d8bdf3e606U,
  0x3de87b323d06f99fU, 0xbd477e523d2a9cddU, 0xbf09b0043e3a1dd2U, 0xbe22186c3e741ccfU,
  0x3ddbf1e03d99996aU, 0x3a96d7063e1f6ebdU, 0x3d0e2081bcad3e3bU, 0x3da05715bc89d9d0U,
  0xbe64cf823dd1f16fU, 0xbd08fbf9bd6b2c41U, 0x3aced8f1be117a95U, 0xbc4afb7cbdb9483bU,
  0x3e0dd75cbe0a54c8U, 0xbd648abdbec15386U, 0xbdedd69fbd89b9b1U, 0x3da1d2a7be21a35aU,
  0xbd867aabbd277b8aU, 0xbdbb61ebbe5bc00fU, 0xbd2264e0bea6a1cbU, 0x3de987d03d8094b5U,
  0x3aab976b3dd152feU, 0x3dc17a7abdeeea75U, 0x3e043ccd3cf83262U, 0x3c31e65fbeebb6a1U,
  0x3d204c4ebccf6348U, 0x3d05faadbc132ef7U, 0x3e1703a3be3365c0U, 0x3e5a639fbe1919b0U,
  0x3dcb0b123bc2dcf3U, 0x3d4fbec6be074a61U, 0x3d7b2700bd94db03U, 0x3d9abce7bdb4147aU,
  0x3e1ce658bdb047b4U, 0xbdd5557bbd88b57dU, 0xbdac4eb23dd32d26U, 0xbdb6739b3dd1b71fU,
  0xbd81cfc43c86dfecU, 0x3dbce90fbd8104efU, 0x3d3c38c4be1820e0U, 0x3d3efc1fbdd6258eU,
  0x3d994e2b3d9cb254U, 0x3d2f2562bc828f49U, 0xbe078716bdf00c91U, 0xbd0e0dca3cdc56b4U,
  0xbbf5ae9bbb474f6bU, 0x3db97c90be0fd152U, 0xbb9725b9be2b1f54U, 0xbcb8cdbfbda277c7U,
  0x3d01ef81bb01fc24U, 0xbddddad2bdda55dbU, 0xbeae88ee3d0cb068U, 0xbe0a9e653cba3270U,
  0x3d55bbcb3df84426U, 0x3dc24c39bc492bbaU, 0x3dd08cc2bd0b6196U, 0x3c1418b73d107639U,
  0xbd6a6e6b3de9576eU, 0x3dfb62f2bd36aeadU, 0x3cc8d292be74deceU, 0x3d17fb4a3d0154ebU,
  0x3dae6b0fbc96e308U, 0xbcb7340fbdcec490U, 0x3db4f5703de5d111U, 0x3b5a2d3fbdfeffafU,
  0x3dc615213db685adU, 0xbd772e1fbe02dd8aU, 0xbd83c29d3d4e78e3U, 0x3e07b67cbe75cae5U,
  0x3d9c31433e6c0eccU, 0x3db957c7be104629U, 0x3d8ee61f3deb23b4U, 0x3d0b67613c8c4cefU,
  0x3e2c6e47bc46b84aU, 0x3d85f0b9be043b9fU, 0x3d4fb4cbbdf95854U, 0x3dfbc3b93de5373dU,
  0xbcd5dec9bd3add4eU, 0x3d9f608c3c48a66aU, 0x3ddb32243df26cc4U, 0xbd473272bd8d9d0fU,
  0xbd8db0843daae0d4U, 0xbe144716bdad30a0U, 0x3dd16d1b3da2d3bbU, 0xbd1a3c39ba81db1fU,
  0xbc099d18bd53db4fU, 0xbd8312e7bdd4415bU, 0xbc85b5a9be3d724eU, 0xbd02ea593e0d9283U,
  0x3e0723533d54b947U, 0xbdb4b30ebd8cbf22U, 0xbdf80455bd9f9203U, 0xbc5851693d4cb63eU,
  0xbe1093ccbe722545U, 0x3de798533e35e60bU, 0x3e2764d4bcc9fcb1U, 0xbd797379be1f05d1U,
  0x3da237e53d956488U, 0xbdfe71d0be7fa4b3U, 0xbe15289a3d7d6cb7U, 0xbe3d1c32be014926U,
  0xbe4cfc95bd83a942U, 0xbd4f6b30be350318U, 0x3d944045bd75c9efU, 0x3c735f4a3ddea7edU,
  0xbe1350a93d68cd3dU, 0xbd2ac1f7be918fd2U, 0x3dab824cbe613769U, 0xbe7dbd593d80fef0U,
  0xbdb51728bd955577U, 0x3dd503f23e73fa8bU, 0x3e1a2c2b3b5eb340U, 0x3d3c47d23e137170U,
  0xbdc22c193e1df5f3U, 0x3dd555cbbe44fcd1U, 0xbe3e73623dcb2ec4U, 0x3e3d2f20beb281a9U,
  0xbc89fe6dbd9e4b0bU, 0x3bd92b7abd36fdc8U, 0x3dfe93773e824bd8U, 0x3db8294c3d85b837U,
  0xbc876e173d99b042U, 0xbb978ebbbc811b93U, 0x3e4a9911bddc20eaU, 0xbe05f8173d960766U,
  0xbe43535abe1781a5U, 0xbe3d3f713e0a8aa7U, 0x3d2ba103bcdf6f7cU, 0xbe277e2cbd9ab4aaU,
  0xbcf906c4bd37849fU, 0xbc2763a7bd8c1666U, 0x3d94ae3a3db91c8cU, 0xbd8535af3da143b0U,
  0xbe3d270cbe513517U, 0xbe563f5d3c839f11U, 0xbe10295abdd71172U, 0xbe3a6b373cc4ee8aU,
  0xbd7f22fabd8c4cfcU, 0xbe2186d4bb43b313U, 0xbe5048803d25d10cU, 0xbe8499f23d08c37cU,
  0xbe840a47be0c100dU, 0x3d6ce96c3e373c7bU, 0x3c7e1bd03d86b866U, 0xb97f3750bd6b4c2dU,
  0xbd2d507abcfbd1a4U, 0xbd2f0b44be534722U, 0xbd821eb73bfe43f6U, 0xbe2dfbc8be0c7193U,
  0xbdc268a2bd8aa847U, 0xbd9d6738bd6b794eU, 0x38ae33df3da8d21aU, 0x3ce2ee4a3d44a608U,
  0x3ab4e420bd0dcfeaU, 0xbd9ec477bd92f916U, 0x3d9243d1be1117f5U, 0xbd6bb47ebcb12ff1U,
  0xbe26915abe6b1d62U, 0x3d24bcbb3e806b15U, 0x3dd4cd9f3da33cc5U, 0x3ccd35df3d1c4587U,
  0xbd23b10dbc57c2eeU, 0x3d9f549dbe3df1bdU, 0x3e085cc2bcfd3d0fU, 0xbd489500be8ece6eU,
  0xbe7ab10cbc92e101U, 0xbd0dad0dbe72e57aU, 0x3c5f2624bda2bbd9U, 0x3cd553063d9189f8U,
  0x39eddee93d7abd08U, 0xbc7adaf63d02aecaU, 0xbdf8f14b3c80fc82U, 0x3cc72949bc224828U,
  0xbec05252bcdaea2cU, 0xbe824a3dbd58197cU, 0xbe86ca91be0fd07eU, 0xbeab732ebd269e6eU,
  0xbe3fb507be6a5733U, 0xbc6a29f23dcf9826U, 0x3d4ef9aabe50c7dfU, 0xbe894895bdff8a7fU,
  0xbe19a920beaca911U, 0xbeb86460bd03f7d9U, 0xbe313a4fbd7d5fe9U, 0xbe820159be203cccU,
  0xbed111ebbe7dd17bU, 0xbe6a23c73df9f0bcU, 0xbe3404d73da8b5d4U, 0xbedb96b8be530f4dU,
  0xbe34a4503d63a669U, 0xbe6ff659bd10f1f3U, 0xbe94bf41be0e1371U, 0xbe332ec4bce146edU,
  0xbe2516f8be461ad0U, 0x3de446883accd3b0U, 0xbd25a61ebe4ed160U, 0xbd4f3bc9be34b02cU,
  0xbe5ba89bbddce3c5U, 0xbe73f247bd8345e5U, 0xbd2c01c3bb8e9979U, 0xbe46a6a5be6fdfb7U,
  0xbe2d536abe32ecabU, 0xbd88dbab3e0050f7U, 0xbb8d15fd3d89c396U, 0xbde4da07bdd8b902U,
  0xbe4c2853bda7c392U, 0xbea297c83e320f32U, 0xbe8eb85dbcf69072U, 0xbe3b95abbd634dc0U,
  0xbe4bb996be7247e7U, 0xbd8225b1bcbe119dU, 0x3d65c3d4be8ac41bU, 0xbd46eee5be47e6c0U,
  0xbeb534c7bde49011U, 0xbe4b0f80bdcea3abU, 0xbe51849d3d2713bbU, 0xbe8cebcebb89db68U,
  0xbe1a04e6bd9b16adU, 0xbe4172213d940979U, 0x3d9882c63e04a403U, 0xbe9dc0f6be9d60d6U,
  0xbde2d06b3d12bf47U, 0xbdf1c070bd9b74baU, 0xbe3853a13e0691fdU, 0xbc0854633c6ba92fU,
  0x3e2bd5eebd51dd90U, 0x3e075c943e0e864cU, 0xbddd2f18be140a28U, 0xbda75ccd3d535f30U,
  0x3dade9eabc6687eaU, 0xbcce20673dc60764U, 0x3c94fe373d39187dU, 0xbcf1ba00be04dbe8U,
  0x3e9a02973d02f41dU, 0xbe0b36e93e237a20U, 0xbbfe143a3d4eaeedU, 0x3d986ba7be306fdaU,
  0xbc9b11d13c1491d6U, 0xbd5c937c3e79090cU, 0x3d1b7e763e143d73U, 0x3c3f53333df37be8U,
  0x3c2600613df167afU, 0x3ddb247c3dab50b2U, 0x3dfde4d93d895ae2U, 0x3cf8af663c8ac9a8U,
  0x3c92b5cebd4c6becU, 0xbcf7e1303e0575fdU, 0x3cfcbe3a3d8fe75aU, 0xbd7bf6403e15903bU,
  0xb9c6bc5cbcd0abc2U, 0xbce0489a3ce7cec2U, 0x3de41313bd2ee45fU, 0xbdcbdbff3d0b41c3U,
  0xbdc718d8bd363040U, 0xbc529f65bdeb341dU, 0xbcb20881bdbbb2b4U, 0xbb86eef43e1663cfU,
  0xbda9e4f8bcc0fa98U, 0x3dfb67efbbe8e512U, 0xbe359c13bdf8f73aU, 0xbd3e4645be2bbe7aU,
  0xbca20d24bb20f0f2U, 0xbe23ef473ccc81ccU, 0xbc10a1263e2e0208U, 0x3d0650e4bdca49ddU,
  0xbe84ca8cbc4554a9U, 0xbd158e9f3e0256f4U, 0x3dc2a59d3c0cdb98U, 0xbdf02512bc10b98dU,
  0xbd6b2e193cd8bb31U, 0x3d259b6cbcc88f78U, 0x3e0a40d53e86a493U, 0x3d5a1b5e3d5f6cfaU,
  0xbd7752a53d938366U, 0x3dbaead9bbc1e0deU, 0x3e0ce103bc97974fU, 0x3df43794be13ded0U,
  0xbd9caa9ebb156613U, 0x3d173e78bd48c1a0U, 0xbd0ae6c1bc45c5c8U, 0x3d0887b53d92ce08U,
  0x3e2cb18fbd2fa8acU, 0x3d1b56c03cb04575U, 0x3da1a045bbfbbb4aU, 0xbda34bf73dfdd4d0U,
  0xbdc66c153ce5d59bU, 0x3ac2e5d03e4557dfU, 0x3d2d4ec93cd10ed2U, 0xbd45a95cbd971a63U,
  0xbd0fbee9bce0b2bdU, 0x3d67f6f1bdae28aaU, 0x3e1b7ad5bd0aabfeU, 0x3c43557ebdf93c2cU,
  0xbd71a21ebd90f556U, 0xbd88f2a9bbf6f5e1U, 0x3d3d06113cdf9afeU, 0xbd23abf63e316e66U,
  0xbc065f42bdc79977U, 0x3d5b5722bca29929U, 0x3d69aaa83e3c2d28U, 0xbe2aea9a3e0423b2U,
  0xbdb9ae683c6ec389U, 0x3d80b88e3e167714U, 0x3de419483ded5b10U, 0x3d2a3b743e0c154aU,
  0x3d640d5c3deacf1fU, 0x3e51b8a6bd16cb87U, 0x3cbf94423bbf852eU, 0x3d07678fbe74a3bbU,
  0xbdc1ad5bbdeb90f7U, 0xbdd62f8a3ca399ecU, 0x3daf26bf3dcf1605U, 0x3d97fb673e3939b6U,
  0xbd4b92493dc32a63U, 0x3d49b7033db86f3eU, 0xbca4393b3e3aa9e3U, 0xbe55c9563cc2b5abU,
  0xbb86a00fbdd8df50U, 0x3b0ae3463db62450U, 0x3b1c8c25be024091U, 0x3cf4d8643dd5f159U,
  0xbdce983d3d480c2aU, 0x3de4292abdad6d37U, 0xbd853a993e081da2U, 0x3d8d1ff5bde16e17U,
  0xbdf3b0f5bda7b1d6U, 0xbdd61a6ebc80728dU, 0x3df0c0a53df0acafU, 0x3ca03c9e3e1bef9eU,
  0xbe27d753bcff1d9eU, 0xbdc3e6d2babcdf86U, 0x3e8eb39bbb943e46U, 0xbdb255dd3e104115U,
  0x3dae7d133d253ee8U, 0x3cb53f19bdfd1bc6U, 0x3d08d53cbd90638fU, 0x3d864e74ba86b2bdU,
  0x3df2deecbcdb5f25U, 0x3dadc6cb3b16d41eU, 0xbe004357bd40f922U, 0x3e2c303bbd28615dU,
  0x3e15b5b6bda0893dU, 0xbd6575bc3d2430b6U, 0x3d5695523da435a2U, 0xbcacadeb3c0590a8U,
  0xbd5bd31f3dc045f3U, 0x3d4e9a4b3e101752U, 0xbe10612e3dc8d3c8U, 0xbcfdf711bd874f63U,
  0xbb7c0c693b38bfe4U, 0x3d871b21bcb428efU, 0x39f569d43e3649e1U, 0x3dbefa90bdde4d21U,
  0x3cef94a93d9b3338U, 0xbd1f28a33ce84e7cU, 0x3d9940343c3b321aU, 0xbdc71d4d3dca6b59U,
  0x3e2abad63da2ec91U, 0xbca744983d6d054cU, 0xbd2d2dbebe03fbecU, 0xbc93170cbdf36e19U,
  0x3e496e223e158fc1U, 0xbcf9638ebb4bf114U, 0xbe4a4f1fbc9c47cfU, 0x3da813b6bda3570cU,
  0xbbdb5a9fbe9b5b54U, 0xbdc5ed323ea146cdU, 0x3db7467b3e32ce33U, 0xbe184e63bd87889bU,
  0xbdd73fccbd804311U, 0xbe67cba9bea5706aU, 0x3e17e2783e000354U, 0x3dd26949bd986942U,
  0xbe5bab07bdef8c92U, 0xbdcbe178bda123a4U, 0xbd1e9f8bbd3b781aU, 0xbdc9d7313e13cc97U,
  0x3c9a2378bde741ffU, 0xbdb6c20fbe8e4df5U, 0x3d29d2dfbb5f2090U, 0xbd68547f3d8307f2U,
  0x3d753a41bddd4f4eU, 0x3c2f66583e05c459U, 0x3df9d1a33e38c97eU, 0xbd723f413da75b3aU,
  0x3b7c10113d7f269bU, 0xbd8d361cbe1ef691U, 0x3e39203e3dbefca2U, 0xbc7f5cc7bd26dc1aU,
  0x3d263fc13d7b47c9U, 0x3dc402d8bdb74ed6U, 0x3d5acb043b4261f1U, 0x3c59f7fc3e1a1e0bU,
  0x3e20eb98bd622061U, 0xbcc6028fbdac3199U, 0x3b92c1c73d46a5d1U, 0xbdc7be953e3b6026U,
  0xbb9b9a3dbe5db4cfU, 0xbd17e9613d62232eU, 0x3c3bc1a13e1def42U, 0x3c12e048be824b98U,
  0xbde5baf1bb296234U, 0xbe6cdc49be19826dU, 0x3e7814edbd89037bU, 0x3dde9f28beac02c6U,
  0x3d06eedc3e095dbbU, 0x3e218642be4ecc68U, 0xbdd5078cbe6dfca2U, 0x3d171339bd6b478dU,
  0x3eb639b6bce50cfdU, 0xbd483183be78062bU, 0xbe85c6e63ddaeaceU, 0x3ddcde9dbd50fe63U,
  0x3d2960c83d65fc97U, 0xbdf5cc723d1169cbU, 0xbe596e43be95e83eU, 0xbd3b00b73e560a20U,
  0xbd1ea405bdce10ebU, 0x3e3f05f6bd03d4b3U, 0xbe55ddfdbdc978e7U, 0xbd7b03bdbe31d8a9U,
  0xbe024ac7be182cb6U, 0xbe2e2286bd860dfbU, 0x3b5d6a413e0447e0U, 0xbd890513be09c354U,
  0xbe23c5fabd775ea4U, 0xbc3ebc713e16f917U, 0x3dafa07dbd00cedeU, 0xbd2b598cbe04c628U,
  0xbe83a1ed3cdd6e65U, 0xbe26eb403df0f13cU, 0xbe8002b2bdf770ebU, 0xbd4a701c3e4b28e0U,
  0xbd996175bdbde66bU, 0x3e4332053dd21832U, 0x3dbbbb5839f6c363U, 0xbe16efe6be165f5cU,
  0xbde7721ebcf3f6daU, 0xbe63bb75bd8ac88aU, 0xbdb9e1eebd0ac9beU, 0xbdbbe1fbbcf21268U,
  0xbeb568dcbe3166acU, 0xbe1d2c753e1e87dbU, 0xbd8937a53e6592d6U, 0xbe4fda71bdcdad36U,
  0xbdb736d63db45f36U, 0xbe12bc7fbe804a65U, 0xbe6c3a4cbeff1e9dU, 0xbe2a0fae3e0df337U,
  0xbdd6a087be448a20U, 0x3e7491683e141401U, 0xbdfecc7dbe26ded8U, 0xbcc4f78abe0ad72eU,
  0xbdac6bebbe7ac687U, 0xbe6a3b413a799e06U, 0xbdb39c60bd998187U, 0xbe13f9c5be0dd9c3U,
  0xbec5ee04bd9a7022U, 0xbdf9803c3e8cd908U, 0xbdd14e5b3df75a55U, 0xbea29d6fbe2fb021U,
  0x3d8a3868be62c050U, 0xbd93e3dfbe1aa66eU, 0xbdd6910cbd9ca2e2U, 0xbde904a7bdd1e6ddU,
  0xbd19a0493d2dd072U, 0xbe4af1ecbe80880eU, 0xbe18072bbdcf4c24U, 0x3e102fa73bbff752U,
  0xbe11c9313c3ab1f2U, 0x3e0e86cfbe6adc05U, 0x3d9082483dad89e5U, 0xbdab0950be2cb846U,
  0xbe8eb9df3d93245bU, 0x3c8a834bbe718b70U, 0x3e08c324bd95cbc4U, 0xbcb4cd923d99a1e8U,
  0xbe418f90be0a883cU, 0xbe510c49bd84a337U, 0xbe33fb5abe3dad67U, 0xbe1aee9ebe84cc93U,
  0xbda0e005be003a8aU, 0xbec88d41be881bcdU, 0xbe87809ebe73c543U, 0xbe2d04b33cd215bfU,
  0xbe654998be83101cU, 0xbe8e7358be572392U, 0xbe2c311fbe2ed66fU, 0xbe921425be86bcc4U,
  0xbea1a625be626e57U, 0xbe751f0fbe9cd759U, 0xbe1aaa5fbdfe2b87U, 0xbe7b86d6be540e38U,
  0xbe85edbc3ea91a10U, 0x3e03208b3de9c4e2U, 0x3c7fad153d139cfeU, 0x3d17755d3e520926U,
  0x3dbb022a3df6ab6fU, 0x3e03b0483e5a8466U, 0x3da98f953ca82435U, 0xbdf2e8883e960af1U,
  0x3e52c7273c5cfb1bU, 0xbd3ea24f3eae637fU, 0xbd015716bdac5713U, 0xbb5aa2703cf8fc06U,
  0x3e5506aa3d783aceU, 0xbc2d9c923d3c56a4U, 0xbe046866be5a1b12U, 0xbd80a56e3d80660bU,
  0xbdb3c6f9be506f24U, 0xbe468f83bb837e36U, 0xbd457678bdbb1812U, 0xbe2a977ebe0a7fddU,
  0xbcf1162abcf30dacU, 0xbce8d505bd87f1b1U, 0xbd41bde0bd0d14fbU, 0xbd1e79133ce6d5b7U,
  0xbe2f9cdabd868470U, 0xbdeb508d3d30a919U, 0x3d6351ffbdf5de55U, 0xbd32d2f7be23d7efU,
  0xbe0f14483b2f7078U, 0xbc762a71bdfc3382U, 0xbe1941833db815f5U, 0xbe04f1debd6fbfadU,
  0xbdc7fe63bd90a601U, 0xbe2408673dd131b5U, 0xbe506efbbe8544a5U, 0xbe3ed26d3d3ad911U,
  0xbe80059abe2958f4U, 0xbc8693163bbe826eU, 0xbd156cd8be720f0eU, 0xbceb9bd1be54b852U,
  0xbe20eababe76ed95U, 0xbe40c478be322e52U, 0xbe011aefbd32c9abU, 0xbe526bb6be478b0fU,
  0xbec5f002bdfc948cU, 0xbd9a07c63d4c37bfU, 0x3e266173bbd44f31U, 0xbe0c5cd4be63286aU,
  0xbe2999e4be950b73U, 0xbe1a7c023e828cf8U, 0xbe0e0e2c3c8c9cd7U, 0xbda73ea7bea39e64U,
  0xbdbc51ebbe621ca4U, 0xbe0c8041be89e882U, 0x3e39ebf1be246293U, 0xbd0e7c3ebe4effbbU,
  0xbe8179a7bda7e08cU, 0xbe1f53c2bea92fd3U, 0xbdce9bdbbe894104U, 0xbdf039e93e389bf7U,
  0xbe3004ddbe89cf66U, 0xbe28563fbdb6e8dfU, 0xbe1e6cb93d2bc9ebU, 0xbe7295f1be53a988U,
  0x3db1afe73e033e72U, 0xbdf6803c3dc56bdfU, 0xbe0371f03e5854f7U, 0x3cdaab833e08e611U,
  0xbc415225bda8ca87U, 0x3e43cd383e1a70a6U, 0x3d7fb04cbe40c66cU, 0x3e38d128bdb7e99dU,
  0x3c955cbe3d4ad86eU, 0x3daa8a843e247f6dU, 0x3d4b00713dbf0b17U, 0xbc9c8a58bd80ed9bU,
  0x3ea2bb6c3df3aae3U, 0x3df6004c3e6ea204U, 0x3dbee5403d02b593U, 0x3e1266a0bdce64adU,
  0xbd86e85b3dd81330U, 0xbdf9680d3ea600deU, 0x3caae29b3e89e07cU, 0xbdcf17c03e091954U,
  0xbd5f9c73bccddee8U, 0x3e2446a33b5b1688U, 0x3e6381493cec7bf1U, 0x3e02c300bda14566U,
  0xbd8e765cbd58df02U, 0xbdbfa6413dd33774U, 0x3d0552973d144355U, 0xbcf023553e5a0143U,
  0x3e23d1febc280f8cU, 0x3d3712153e2e2f8bU, 0x3d96baa9bce6589cU, 0x3d32f8c1bce735b9U,
  0xbc47d1803dacb086U, 0xbd9447a2bdbb1246U, 0xbd0410eabe685e7cU, 0xbd88b1c33e4c9c58U,
  0xbd471aca3d836c3bU, 0x3e5f77b43ce9faa2U, 0xbe227eb93dbfff8bU, 0x3e1d3be2bde5ff25U,
  0xbcf88af0bd9d8fecU, 0xbdab7ce93d83b26cU, 0x3e28728d3e50ef6cU, 0x3cc6fee43d977a17U,
  0xbe48189a3d9734b1U, 0x3cdbcb373e51fdb4U, 0x3e7efaae3d8f43b2U, 0xbe2c4d003e1384d0U,
  0xbbe7cd3abd3d0fc1U, 0x3b261064bddd6270U, 0x3d9d180ebea79832U, 0xbdc96cc0be8993b8U,
  0x3d4236e1baeda52eU, 0xbe8e1dcfbe5bd63eU, 0xbe93cd533e2e0613U, 0xbe315c963df3f9f2U,
  0xbcf4a0a7bd905e66U, 0x3c310da9bd02dc44U, 0x3d6cece8be209a64U, 0xbcdc854c3e07d2b6U,
  0xbee050c23bcc382bU, 0xbd175703beb165baU, 0x3c257bb2be9e706eU, 0xbe8b08db3d8b73e8U,
  0x3df09cf3bd6d98a7U, 0x3cca8e60be66a9beU, 0xbcfe4c63be53a83bU, 0x3aaa18acbdc27faeU,
  0xbb9952f03b066921U, 0xbe09bf70be232991U, 0xbedd87e53dda7bc0U, 0x3d8295703e4655a8U,
  0x3d5854843cd60d08U, 0x3e4db3753d679febU, 0x3d9a040e3dcd9a69U, 0x3ded3761bd3c1458U,
  0xbd102fbf3c207f9fU, 0xbcdca824be3194b2U, 0x3e2b1034bec7cf3dU, 0x3d6b51453d79d6daU,
  0x3d9a07b23e009c2eU, 0x3d77fb7ebe397420U, 0xbd4b79363d9a8b2eU, 0xbd4902523d887531U,
  0xbd0f62b2bd002bdcU, 0x3c9f28a13e280928U, 0xbe32343b3c54d824U, 0x3d81458e3e4d55e2U,
  0xbc37151d3dd84709U, 0x3da248383d09e214U, 0x3d0ff2bfbd4c126dU, 0xbdeb60aebdc7dcdeU,
  0x3ebef38fbdacccd3U, 0xbc69481cbc39aa43U, 0xbdd20041beac7cbbU, 0x3d41c363bd1156d1U,
  0xbdc9ff94be5e9cd0U, 0xbd014ed33df1a8deU, 0x3cc240b6be29619dU, 0xbdc4321fbe963385U,
  0xbb989902bd48920eU, 0xbe785feebea81ebeU, 0xbe64ab2b3db0acb4U, 0xbc96f6323e1eed31U,
  0xbdd265efbe3a9cd8U, 0xbe3017a4bc75d38aU, 0xbb517e18bdddf61fU, 0xbcc9cda03dff6196U,
  0xbea14fd43d57634aU, 0xbd6697b9be934492U, 0x3d53d72ebeb4a086U, 0xbe938685bd8856aaU,
  0x3ea887e3be1ae1b5U, 0xbbe0c391bd65f381U, 0xbd4bd0d8be8b2b34U, 0x3da0a44ebd9fa541U,
  0x3c5b67663cad4330U, 0xbe5a936abe2d9d1dU, 0xbecdad293d898491U, 0x3e9af32e3df1473eU,
  0xbd4bc41a3d39da88U, 0x3d8cb79fbe19b371U, 0x3d9bc9c93dd03effU, 0x3cd0d25c3d38ad60U,
  0xbe7986e0bd87c9c3U, 0xbcd65d35be90abf4U, 0x3e1b1e64bedcd468U, 0x3d9c2d913dd5884aU,
  0x3bd83a60bd757ea5U, 0xbe23f51fbe5ede7cU, 0xbcdeca7abe2f4920U, 0x3c6ea778bd311252U,
  0x3c8f251d3c024af1U, 0xbdc21276bcc45f89U, 0xbe9d7d68bb18cd33U, 0x3e912055bc5688f9U,
  0x3d755ba2bd430afcU, 0xbb76e29ebd07bef5U, 0x3d4c5f47bd6f3383U, 0xbdb58741bc7d71f5U,
  0xbd898c743d3d6392U, 0x3c6786babdaedb94U, 0xbd585c3dbdfa21dcU, 0xbd364ccfbd4a916bU,
  0xbe5272b33da1316dU, 0xbd20efe23e0d4825U, 0xbd3a3ccfbdb4acd2U, 0xbde727bfbe0d6219U,
  0x3dae85adbe01fa63U, 0x3d1b1006be26790bU, 0xbd580ebdbbd20004U, 0x3d57b17bbcee836dU,
  0xbdd229bbbdf52044U, 0xbe9584d2bda0053cU, 0xbd4f688bbc53e246U, 0xbcfc6e1e3d5d5fbbU,
  0xbe8edfe13c805d0fU, 0xbe1e43f1bceb4045U, 0x3a0993c7be19a87eU, 0xbea52170bc361ebbU,
  0xbdd4145fbe64433cU, 0x3d859e6a3e653f71U, 0x3e090e72bdfff0a2U, 0xbba721463d68ffecU,
  0x3d8bad8e3df42183U, 0xbb2830b6bea84bb4U, 0xbde8eef73d51c5eeU, 0x3d1b40993cf98e31U,
  0xbdfba36abda3d13bU, 0xbe06a32abe386d7bU, 0x3e0a27b53e56cc41U, 0x3e0551813e302593U,
  0xbea4bc223d266263U, 0xbd7793a2be931312U, 0x3ebd262fbefd0d62U, 0xbe5ddd643e134692U,
  0xbe387e4a3d6ed491U, 0x3d7745923e636e7fU, 0x3c2e39553d37b0faU, 0xbd937f1a3ec375d2U,
  0xbd2d58cb3e486e2cU, 0x3e51c3583de52bccU, 0xbe01817d3c9b1b62U, 0x3db9c56fbeb2d0acU,
  0xbd037f64bd96b4d5U, 0xbdb83a83bbe92163U, 0x3de18b023e8ce8c4U, 0x3ddf3dc23e497701U,
  0x3e4fabc9bc09251fU, 0x3d7949d93e526e0eU, 0x3e94eb23be8a6008U, 0xbdadad3f3e3720a8U,
  0x3ca67373bd01767fU, 0x3cb6262b3d0aacdfU, 0xbcbcba603e82208fU, 0x3ce03b0bbe468563U,
  0x3d1de25abcdd3e84U, 0xbe4b88643d0ebb32U, 0x3e6c0a21bd05c3a9U, 0xbd3c4272bcde16deU,
  0x3d809e1f3cac376aU, 0x3c8e595dbda43e50U, 0xbdc4cb32be31e60dU, 0xbd8fb5813cfb3256U,
  0x3d476ddabcde1143U, 0x3d057ea5bd855e5bU, 0xbdf22e683c726ebeU, 0x3dbbde7a3c943e65U,
  0x3d39d9cebd9dff9dU, 0x3d8d6d063e6dc40eU, 0x3dce86f23dee5581U, 0x3d26b663be194978U,
  0xbd1b05433d8533a3U, 0xbd826edebcb51db5U, 0x3db5af39ba89b88bU, 0xbc486794be158beaU,
  0xbcb58c4a3d058b04U, 0x3d7ea856bdce7047U, 0xbd1ece6abd766026U, 0x3d1abd8a3e000e33U,
  0xbd768ed2bc086380U, 0xbd57b5d7bc1726d0U, 0xbd95af623d9f305fU, 0xbd012f003d9f7cb2U,
  0xbd74c2f0be3712e1U, 0xbca01f163e2abc92U, 0x3cdcb6ce3e6b943cU, 0xbd3d87c2be6bc1dfU,
  0xbd9643f63c1e0ecbU, 0xbe840601be49d6efU, 0x3de0dddcbdc4d998U, 0xbde1dee9be241193U,
  0xbd48e211bd8b91cfU, 0xbc36da71be0dd930U, 0xbbcba3a8be228d68U, 0xbd45ffc03e33d8e9U,
  0x3e65d39fbc5dfa26U, 0xbd6a1a70be4ea989U, 0xbda25c60bdb418a6U, 0x3d4cb488bd55e39fU,
  0xbd716bf93d8b674aU, 0xbd45c69b3d04256dU, 0xbe4b2139bd44d989U, 0xbd82b46f3e43932aU,
  0xbdd7505abd65cbe0U, 0x3e487ffa3dc4f705U, 0xbd936beabe0fa3abU, 0x3e44c2b5be9abe58U,
  0xbdaa0c7fbe1eb934U, 0xbe360a70bc7aa7c2U, 0xbd8412b13d1a4095U, 0xbdbb67f1be20aba3U,
  0xbe61f739bdff3be5U, 0xbd785f8f3e3c790cU, 0x3ce897743e653437U, 0xbdea3f50be1f7129U,
  0xbddef9113cd4d86cU, 0xbdc8c55d3da3ba60U, 0xbd67a9acbe2f1d92U, 0xbd9f483f3dc9336dU,
  0xbcf97831bd17ebd9U, 0x3cbb37de3e0652c4U, 0x3cd1bf13be14e3ffU, 0xbcb1f141be2e4b2cU,
  0xbc5da7a43c489a3eU, 0xbdfa4c823dacde6cU, 0xbe0fcf6abdd37b9dU, 0xbdb2513fbe23881aU,
  0xbc475800bdbc1630U, 0xbd554aec3de5c862U, 0x3c89e76d3e36ed5eU, 0xbc591d5ebdd95b3aU,
  0xbddb9044bd4cf54aU, 0xbe4c29e53d926221U, 0xbe21d511bc102047U, 0xbdc213763d3b5e2bU,
  0xbe3eff78be06669bU, 0x3d49b1b1be02bd60U, 0x3dd18875be80e3e3U, 0x3b295a5bbe3d5771U,
  0xbd8912cb3bd82e08U, 0xbda648a6bdbb44b6U, 0xbdf4e92e3dbf3d97U, 0xbe134fb6bc3aae5cU,
  0xbe7b98c2be1fca94U, 0xbd77969d3d802525U, 0x3d37d28a3e24887cU, 0xbd4d72c9bdb4585eU,
  0x3d80b3ce3d2839aeU, 0xbcc26e663e1f88deU, 0x3e1a2f0d3e2b5d24U, 0xb9c044c63d58c231U,
  0xbda531663da17493U, 0x3d7928423d794ec1U, 0x3da142473d764e55U, 0xbca14649be89b90aU,
  0xbd03d5b33ba24c18U, 0x3dbc37f63c74525eU, 0x3bcf1f013d2b9acbU, 0x3c461a2e3e12ca8cU,
  0x3d77e642bc872935U, 0xbbc599cb3e1f551bU, 0x3de959f13d58357cU, 0x3ceb68d03e24a0b4U,
  0x3d2acea6bd100caeU, 0x3cdc7923bca1c27fU, 0x3d97b765bda65385U, 0x3d4f84313d3134aeU,
  0x3d2cd6493c43cedfU, 0x3d15915cbc0d28c2U, 0xbdd009f53dd9e79aU, 0xbda2db5fbe194faaU,
  0x3cfcf4b0bd5c0005U, 0xbcd494373c59ac4dU, 0x3d771dd9bcfc420fU, 0xbd1dde753d895eacU,
  0x3d5e609d3d279348U, 0x3d8320513de913e1U, 0x3dcc0a58bce03789U, 0xbd105db73d417e84U,
  0xbd3e47b3bd62d70bU, 0x3ca9f832be3e42b9U, 0xbdb6122e3cbf1d49U, 0x3adf069a3de238d2U,
  0xbbfa20ec3d508f6aU, 0x3e2ad59b3dc5eef7U, 0xbe336ca4be1d9882U, 0x3dd4fc9ebe547a79U,
  0xbd203b70bc25deabU, 0xbe063d553c098540U, 0x3de82b393e1eba37U, 0x3d151d20bde0ac2aU,
  0xbe47437c3d075b93U, 0xbd81c6e23e05cb45U, 0x3d994775bddb009eU, 0xbca1bf613d96e1c9U,
  0xbeb1f36a3c1cdc33U, 0xbda499df3db20684U, 0x3db8e97a3df93bfbU, 0xbdc886a93dca55eeU,
  0xbe060a223ce0a136U, 0xbdfcf9e9bd9391cdU, 0x3d8f39ba3d00522cU, 0xbe04232e3b90abebU,
  0xbe471d55bdc72d20U, 0xbe609ffb3d60905eU, 0xbe1c49e1bc2a4a9aU, 0xbd0240133e764a04U,
  0xbc4479bbbb879744U, 0xbdceecfcbddc5c8fU, 0xbd198c2ebdb81e46U, 0xbe27b3debce906a0U,
  0x3e0c6862bd9a3175U, 0x3c4213bfbce6141aU, 0x3dd343dcbe567987U, 0x3d4afcf63c435bf0U,
  0x3d476f7f3df3f7e7U, 0xbdeee312bd3316ffU, 0xbe90d9603e6c71a8U, 0xbc48f2c53e21347dU,
  0x3e34c0b1bd0f2df9U, 0x3a9f3ee33dbd8b7bU, 0x3d7dabffbce343faU, 0x3d5a64763e7a9835U,
  0xbe4b87bc3a723ad4U, 0x3d9e3946bdbff774U, 0x3d5027afbdd9c670U, 0xbd1a8f2c3d45629aU,
  0x3e923dc3beb0dd0bU, 0x3dc68a1dbe38b2e0U, 0x3d5097d4baa9b3ebU, 0xbd7d280bbdd77ef6U,
  0xbdfa248e3d39cf8bU, 0xbe265f1cbea9a8abU, 0xbe60a4843d58f986U, 0xbdc6fda7bdf0dfbdU,
  0xbdbda20cbce13191U, 0x3d9a7704be61d89cU, 0x3c0528483cd1ad26U, 0xbd0d2409be0436b9U,
  0x3c276c50bdca9f64U, 0x3deb1448be8b7753U, 0x3c8b0df9bee8fb47U, 0x3e3a39273d99d073U,
  0xbdf1ab563e06daf9U, 0xbcca45b4bdd485cbU, 0x3ccbdc483cdae725U, 0xbc3772763d31370fU,
  0x3e0424873c384f0fU, 0x3e1454203e5685bbU, 0xbbbbbd663c8715fbU, 0x3d5115a53e610069U,
  0x3dc6346cbdd7afaeU, 0xbdb9efaf3e0c3bb9U, 0xbdd2a7edbc373729U, 0xbdb084f8bd0bd0d4U,
  0x3e8e4e7e3cde4889U, 0xbda9e5743df6802dU, 0xbd8c70b33dc2524eU, 0x3d98b012be1cde1fU,
  0x3cfc367c3d420cb9U, 0x3d00dea9bd25cf4bU, 0x3c20b05ebcf94cf9U, 0x3dcc0d6bbd8c2815U,
  0x3e2790edbd04e878U, 0xbe0782b9bc386180U, 0x3c2d912d3dab8233U, 0xbd9bf7803e0ba03cU,
  0x3dcdea563de803a1U, 0x3d86ecd53d9c9179U, 0x3d9d8e45bd4c0626U, 0x3dd54fed3ce2ac98U,
  0x3e137d7d3d8e6386U, 0xbac125eebd1a703cU, 0x3c16d455be41e2f9U, 0x3d8ac992bd380721U,
  0x3e2bdb98be858b15U, 0xbd02bab6bee9270fU, 0xbd178661bdeb2597U, 0xbd04bb7cbe884b78U,
  0xbe293599bd2221d0U, 0xbe6a3ca0be57dea8U, 0xbdb622f1be84aad0U, 0x3d85ca0ebe3fad8cU,
  0xbd967ef83d9cc7c3U, 0x3d78d2a5be802941U, 0x3d93c5ddbda7f2d1U, 0xbd1ad6b5beb1ffbcU,
  0xbd54ab38bdbd3a23U, 0x3da17312be9c4416U, 0xbd5057ea3c8be207U, 0x3df63cf03cc62491U,
  0x3dbf03433e89208bU, 0xbbd9be1cbde9e32fU, 0xbda6bd9e3e8ec104U, 0x3c49126fbd86c36fU,
  0x3c0e6736ba87a2f4U, 0xbd07a0463e870dd5U, 0x3d419cdbbdf35cb8U, 0xbe0674afbc5dbac5U,
  0x3d45c8103dc56fb9U, 0x3d8e507d3dd8c9bfU, 0xbdf19eafbe7c9e2aU, 0xbd441eeabdfbe655U,
  0x3f052af43d86aee7U, 0x3d80f5eb3d146226U, 0xbe2b35aabe266db7U, 0x3e523cbfba3a831bU,
  0x3cfed0f7bddfbdefU, 0x3c963815be6d96ecU, 0xbdeb281ebc68b529U, 0xbdb8e453bea06c30U,
  0xbd7b4425bdff205fU, 0xbe94d6ecbe5efd2cU, 0x3cd30cf1be313dfeU, 0xbd66410e3d951f3eU,
  0xbd8d87023d6df0c5U, 0x3c4d82a2bdbb4904U, 0xbd4abcafbe58332aU, 0x3d093853be0d1164U,
  0x3ca5aad8bd58e559U, 0xbcdc8a26bec7b5a0U, 0xbe844ae23d57d8daU, 0x3d0eb2233d768ea1U,
  0xbcda15fcbe2b2706U, 0xbdd31bc8be546a7bU, 0xbe5204d7be0c07fcU, 0xbd62f9cebe3b3336U,
  0xbd9e926cbe18605bU, 0xbe6dbdadbe2ceb59U, 0xbdec6bc2be93fba8U, 0xbd0d7214bd5911d2U,
  0xbda0703ebdfcd091U, 0xbdd92ba1be226c9eU, 0xbd32adf4bdd332d2U, 0xbdf9df52be9b96d4U,
  0xbdd50c21be67e37fU, 0xbcbcb425be7dc7d3U, 0xbda33bbc3cdeb8a4U, 0xbe0734c4be2080caU,
  0x3d019e0b3dcc7c26U, 0x3d38a4d1be7030ebU, 0x3d2330abbdc2108aU, 0x3db69418be04df53U,
  0x3df2f97a3d9b615fU, 0xbdfe13c63d892164U, 0xbe80fab5bb86177dU, 0xbe8ea6cabd7e4689U,
  0x3d9269783de95a38U, 0x3dd874e03dc9d6dfU, 0x3db655b3bd29fff8U, 0x3e02b4c3be03f006U,
  0xbd881c6c3d2e7328U, 0x3ca09e223ce928a3U, 0xbe78583abe30303eU, 0x3d66611d3d36db38U,
  0x3dd04d20be05f728U, 0xbcbe20aabdf513aeU, 0x3e1f988b3dfa4b58U, 0x3cc82b89bdbe1d2dU,
  0x3d44d33f3e001423U, 0xbd629064be0a225cU, 0xbda6a02abda87deeU, 0xbdba38e4be1f9c33U,
  0xbbfdf49a3e1d5a27U, 0x3e0055bbbd0eaf76U, 0x3dbdaa5dbabf79a8U, 0xb90317f5bc67928dU,
  0x3da6c6283deba902U, 0x3bd6f33bbe133e0cU, 0x3d165673be41857fU, 0x3e186e89bcb2fe78U,
  0x3e033d2c3c984f39U, 0x3d2ab11e3db1b157U, 0x3e0e292c3ca597ecU, 0xbd1a6cad3dfa71aeU,
  0xbe55e74e3dfa449bU, 0x3da79779bd68fa05U, 0xbd134d31bce8fe54U, 0x3d8fed27be4e2f33U,
  0x3d060bc33e0beee6U, 0x3e0af7943cd771a7U, 0x3d48dc273e814f70U, 0x3bc806173e1954b8U,
  0x3b31f4683ca68b90U, 0x3c0f4f62bd896065U, 0x3e9ba2c93ca2e25eU, 0x3ddc9b933e339ce6U,
  0x3da3c0eebd91e0f3U, 0x3e048e34bddd704aU, 0x3e1efb8dbe0d2128U, 0xbcac1e81be72ed90U,
  0xbcd4053b3d9fe1deU, 0xbe5d3dbcbe8a4935U, 0xbe29b9fc3e0e4007U, 0xbe36e8c2bd52c94cU,
  0xbcb75d6c3dd39c93U, 0x3df165c4bc146958U, 0x3df642c6bda9cd6cU, 0x3dd5699e3d8a573eU,
  0xbe7239003c8cb96cU, 0x3c6d3c1dbe8494dfU, 0xbc5f39c0be937aceU, 0xbd44be2abc03f26bU,
  0x3dc38fe9be9c5496U, 0xbd122853be1dd049U, 0x3d4bc59dbe116be9U, 0xbd216a38be9da32dU,
  0x3c88a9563d349359U, 0xbea98d35bead5a0cU, 0xbe1bba1a3d37fd40U, 0xbba8e70fbea2a07eU,
  0xbd73d401bd392304U, 0x3d3630b6be9d51bdU, 0x3bdd1792bd47db2eU, 0xbceaa7a9bd89f415U,
  0xbe13fe07bb8a321aU, 0x3ca7b09dbeeb31baU, 0x3d210ff2be914f27U, 0x3d9c28e6bccd1d28U,
  0x3e40c823bed3ec95U, 0xbdf2ac8f3e50b77cU, 0xbd4150c33e21cf84U, 0xbdb60056bdddf7c7U,
  0xbe493944bdcfc2afU, 0xbe1ba3bfbe9c781eU, 0x3db077fbbd6f2871U, 0x3d970ecdbe8e6dbbU,
  0xbea3018bbcd29583U, 0xbcbf3bc0be8b3f17U, 0x3c1340d13dd7402dU, 0xbe034f1c3dd961b0U,
  0x3dbb621abe1548e4U, 0xbd3c8b38be843ca5U, 0x3dc4017b3d7f2af9U, 0x3e02b94f3d640fb0U,
  0x3dcea880be364aa1U, 0xbc5fadbc3ccf1b45U, 0x3e09002fbe1273dcU, 0xbc5bdd28be554e38U,
  0x3df066993d001af5U, 0xbea14e84bea99c84U, 0xbe33661d3e1cca86U, 0xbd54eb4d3e3b9d18U,
  0xbd99c05f3d79d773U, 0x3d73b5663c93fcb7U, 0x3d9b67a73d2cf470U, 0x3df3138b3d8f9014U,
  0xbe22ac3b3d92a31fU, 0x3dcbd99abf1e4237U, 0x3e0b38febee8f655U, 0xbd35ac733e12d476U,
  0x3e563548be80e2a2U, 0xbb86268fbe15b0f6U, 0xbd7ed65dbe48a48cU, 0x3d18d9efbda0bdd4U,
  0x3dddf7f13d8c10c2U, 0xbe0120e7be6215e3U, 0xbe5ccd633d60fcbaU, 0x3db22306bcea6379U,
  0xbcd362ba3d236ef5U, 0x3d40401abdcd6cefU, 0xbc951df23d0fd7faU, 0x3c1f5dffbb2a0127U,
  0xbe50f9e13d1ce961U, 0x3d984f49be3f9e90U, 0x3e4215f4be8ac3b9U, 0x3d422b753d750c69U,
  0x3e23e683be0cca9bU, 0xbe66504bbc9dbc34U, 0xbe33c8fbbd6b0a3aU, 0xbe903252bd648eedU,
  0xbe865d40be111a97U, 0xbe31c657be84112dU, 0xbe05819bbdff1f78U, 0x3e188d2fbe8e533bU,
  0xbe91d96ebdddc521U, 0x3c09b362beb82347U, 0xbdbf8acfbde8296cU, 0xbe704477be110975U,
  0xbe115a39bdfa6434U, 0xbdc5368abe0a93d5U, 0xbd4552e5be3d2bb0U, 0x3c68b351be2ea055U,
  0xbb9fd4233d1454e5U, 0x3c9af9d53d413dd1U, 0xbd82ea91bdf7bcb3U, 0x3ca16ce6bd5f216eU,
  0x3d8e84b5bd45daffU, 0x3c3c3f57bd171798U, 0xbe149eeabcc75ddaU, 0x3c7b7c8e3ba26fe4U,
  0xbde8167b3db304a0U, 0xbd377a71bda377feU, 0x3cecce293d905157U, 0x3d74e4613dcabe3fU,
  0xbdbd32bebc658d8fU, 0x3c9688a83d1ef8a2U, 0x3d722ff4be35b7e5U, 0x3d2e2388bd095a54U,
  0x3d8563bcbcd64620U, 0x3cb43ef43d4fba2eU, 0xbc77f184bd027eb1U, 0x3c9cff433ca52bcaU,
  0xbccac1bdbc075317U, 0x3cadd91cbcbff394U, 0x3d7f992ebdb0ecacU, 0x3d371ddd3c8eff46U,
  0xbdadc8113d908374U, 0xbca2486b3d167bbbU, 0x3da0f1183dbb4fd0U, 0xbd88e116bdf2fe73U,
  0x3dad7e523ba7d6bfU, 0xbd09ad843e043f6aU, 0x3dc6666b3c847475U, 0xbac11710bd9f5d80U,
  0xbd66b5063e0f57cbU, 0xbd0266b2be2c2620U, 0xbe14850d3d81253aU, 0x3c688382bcb96321U,
  0x3dd1802cbcf82266U, 0x3d8d26823e3993d8U, 0xbc614a50be13e597U, 0x3d82ed6c3cd5d506U,
  0x3db6a0493c159350U, 0xbd96303c3d0ac996U, 0xbd176f2f3a9eddd8U, 0xbe0ac3e8be65c0b9U,
  0x3ea806e2bccdec3eU, 0x3bb42e083e05a1c2U, 0xbd1225ef3e541475U, 0xbd00b40fbdf11529U,
  0xbd68bb41bd50746aU, 0x3d0ac7b13e111554U, 0x3d8526b5bce87091U, 0xbd38cf643e0daeebU,
  0xbd3a3e3a3dfe442eU, 0x3cb1e5ccbe152e4eU, 0x3cdbc48ebc02b967U, 0xbccd5d50bd907c8bU,
  0xbd21fa903cbdfa91U, 0xbd5c64f0be0d3c68U, 0xbcb2b5293d065272U, 0x3c7e40fd3e0ac297U,
  0xbe332ee0bcd8df98U, 0xbc51fc10bd879fe0U, 0x3d7b85fdbe1f26efU, 0xbe13583f3ddf4bafU,
  0xbddc6ca73e04c253U, 0x3d1d75973dc863a3U, 0x3dd7fdbf3d9c7fcbU, 0xbd643afb3df66c4cU,
  0xbd82617a3c3108e6U, 0x3e087f3f3c846c75U, 0x3db939aabd7dc084U, 0x3e0c7bc9be3ebf16U,
  0x3b4a49cbbd5f07e5U, 0x3cdefeb9bd37ca36U, 0xbd9a24683d80f6a7U, 0xbc0c7a5f3d328597U,
  0x3d0522f93d9a3921U, 0x3d9675f13d398af5U, 0x3e0aaa453dd5f783U, 0xbd80f4a5bc248de8U,
  0xbe26d5e43d94cc33U, 0x3d1f60c83ddc7f9fU, 0x3dbe707d3c8bc8a8U, 0xbc45bcdb3d9eb106U,
  0xbbbcb9203dba2de6U, 0x3dd89c6f3e3a4d09U, 0xbc0907cdbc0cb99fU, 0x3d9f41a9be100d6dU,
  0xbb35a079bc7443faU, 0xbc947d943de4df83U, 0xba280b27bc9f53feU, 0x3d7572dbb9d98678U,
  0x3e26368b3ddaa1d7U, 0x3a95dffa3dbc9c91U, 0xbdea4a683e57a94eU, 0xbdfc613f3d4630d0U,
  0xbda7e2e6bec8f8caU, 0xbdbaae733dd0b180U, 0xbdbfdd953b727313U, 0xbda1e6a1be3f77d2U,
  0xbdf7cf04bda399f3U, 0xbe0e8317becfc07eU, 0xbcf769b1bd0d4f85U, 0xbe47a8e7be27a8c3U,
  0xbe430e623ab5fd62U, 0xbb87daacbe684fb7U, 0xbd88305a3dcffa37U, 0xbe26a7f1bded9ed9U,
  0xbe606cb7be02a2a6U, 0xbbae5878beb6faafU, 0xbbce5a5cbda481deU, 0x3bfc66aebe15f712U,
  0xbdcfe888be4c1cecU, 0xbd8cbecf3e510d9cU, 0x3d12aa863e25582cU, 0xbd73436dbdd07c87U,
  0xbda848683c81b4f4U, 0xbd17c380bdfda4f7U, 0x3de4fdc43c6e6b0dU, 0xbe27af773da43427U,
  0xbcc51f9abd32777fU, 0xbdf15b3a3d019638U, 0xbdc40fdebc051e25U, 0xbccae4f03e01acbeU,
  0x3d979e5cbe3558bcU, 0x3c4591b6be6c2960U, 0xbd7f77ea3de6cdf6U, 0xbe1899e13dbc430bU,
  0xbe502f81bd2d9e42U, 0xbd9bd0ad3e05cf52U, 0xbb73edfd3e87da9dU, 0xbc917f74be2849d2U,
  0xbd87cb7cbb37f405U, 0x3b0bd25dbbc4d1f3U, 0x3e0f6a593d19be4fU, 0xbe50d34bbda683a8U,
  0xbc6cb8d7bd12f3a9U, 0x3c46ddd7bd3b2642U, 0xbd099f9ebe119b15U, 0xbd8136b13e22d99bU,
  0x3ee24096bd9ae065U, 0xbdcffeb7bdf416ebU, 0xbe5cb7123ceb99f3U, 0xbdbdbc60bd1edacbU,
  0x3dd84a86bd801834U, 0x3d1cf2d5be01630fU, 0xbce3c5c6bdc065f1U, 0x3da7f4d7bcb828d9U,
  0x3e05cf683ca25fcaU, 0xbc86379fbca739fbU, 0xbdf67995bc11521cU, 0x3e0496f43d9e7b7cU,
  0xbca3ea11bd80b08aU, 0x3dba05383c93e588U, 0xbc14db983d4d0e6dU, 0xbc0ef0ee3c750b0fU,
  0xbe35656b3c261a43U, 0x3d5ad6ccbcd542cfU, 0x3dbc4d68be522981U, 0x3c153abcbdb03971U,
  0x3cf7812fbdadf019U, 0x3d8a7357bdeec03bU, 0xbd268475be0e7bdaU, 0x3db7f67dbe0feea4U,
  0x3e15a1f7bce41e9cU, 0xbe247b06bdd81605U, 0xbe968cbb3cf878adU, 0x3cd9590b3ddc50ddU,
  0xbc343ff73d9e96e1U, 0x3ca110ad3dd99630U, 0x3d5064fdbdc5136cU, 0xbd60cebdbcbf3d00U,
  0xbe4efd67bcd40faeU, 0x3d5447d5bdd45836U, 0xbd9e6425bdf9cb0bU, 0xbca88d3a3cec6486U,
  0x3d5f68d33ceff6edU, 0x3d48b3ebbe06ca64U, 0x3e169b72bdde07eaU, 0x3e05bb33be0d49f6U,
  0x3db05c9f3d416dc0U, 0xbd29f0913d6f1154U, 0xbead00073e182632U, 0xbd3fb9c93e073419U,
  0x3e1ad6b33e04d38bU, 0x3dbfe9a63b995d6dU, 0x3d93772fbd7d9e30U, 0x3cfa6fb13d7da4d8U,
  0x3e7cb01abc976ec2U, 0x3d7799abbd7bb13bU, 0x3df0dc01be212c08U, 0x3e5bfd723db93c9bU,
  0xbdff28a1be9954c2U, 0xbce6c25b3e0a6596U, 0x3c9f8936bd79fd0eU, 0xbdffb707bdaab70aU,
  0x3c0b33b0bd027812U, 0xbe18a921be917b0bU, 0xbd1189583da047f0U, 0xbe8a92e53d798734U,
  0x3cfdcb21bd8a7252U, 0xbe356e45be857395U, 0x3c88fd47be0d279dU, 0xbc737ad63dea03aaU,
  0xbdd073d6bdadfda9U, 0xbdf72040be5c1b6eU, 0xbe0b610bbcab41ecU, 0xbe86af433db81242U,
  0xbe31e93b3d2edc51U, 0x3d834c223d1f769cU, 0x3db9d6a4bc8e669bU, 0x3bbea5e9bd5032efU,
  0x3ccb4774bd69ea4bU, 0x3d7fe238be3322f3U, 0xbdb4cc863d59b7d8U, 0xbd74c10cbc461ca0U,
  0xbd8cadddbd8b5b3bU, 0xbe08d8c4bc60fa3eU, 0x3d5ad43e3dbc5ac7U, 0xbc52c5063deb7067U,
  0xbd6b16b83daa1afbU, 0x3d86e126bdba738dU, 0x3b393ca0be12d42eU, 0xbe20289338b210ceU,
  0xbdec133fbe200daeU, 0x3d42d54fbc9679fcU, 0x3de6247dbe5cccb5U, 0xb8a8d9b8be0e1734U,
  0x3d1877b4bbd7245fU, 0xbe46f1b2be2c273fU, 0xbeb6cae93d3d8abcU, 0x3dafb92e3cb5e203U,
  0xbd7b433c3da9f33cU, 0x3a4a222dbd4417eaU, 0x3df517c13d1939ecU, 0x3db991363ddca7b9U,
  0xbdade32a3d2faf2eU, 0x3d8f8c12be95ca3cU, 0x3ea1107bbf05beecU, 0xbe35429a3d116448U,
  0xbe39b4833d2b8baaU, 0xbe8acd9c3e21a0b4U, 0xbda0d03f3d819175U, 0xbe10f7e63d0e8755U,
  0xbd88266abe512a77U, 0x3e89cbfe3c549ef4U, 0x3d660f55bdbf01acU, 0x3d8ec5d6bdfd13a4U,
  0xbdfa882cbe3f6c45U, 0xbe98d1bbbdd8c982U, 0xbe426b113cc940b1U, 0xbe8db79fbb750c4aU,
  0xbdaa616bbe47c3fbU, 0xbe818e1d3eb10ea9U, 0x3e033c803dc2ad6bU, 0xbe9f6b22be8ea074U,
  0xbe8674d9be749136U, 0xbdcf4ae03e4bef04U, 0x3da498123dd19a5dU, 0xbe1ca5f0be0012c6U,
  0xbd3511a0bce7015aU, 0xbd1b0f5fbe8719d7U, 0x3d9eea3dbd805d73U, 0x3e173da5bdafbe3eU,
  0xbe8dceddbdbc4434U, 0xbeb5e59cbe857598U, 0xbd3fedb8bcb360c7U, 0xbd7e03163d9ffbe8U,
  0xbde53f98bc020956U, 0xbdd10f69bdad18e3U, 0xbda309c93d4ba1b9U, 0xbe3c3678bd422324U,
  0xbe4f5b06be6d076dU, 0x3d4612323ea8f50cU, 0x3d9af152bd8c3f03U, 0xbd93a8113d9e40cdU,
  0x3e123c0e3e1a924eU, 0x3ced2706be9f4bb4U, 0x3d89143b3e321c7cU, 0xbe03ec033de18161U,
  0xbe2f0a21be014390U, 0xbe0fa870bd3fca0cU, 0x3da091713e0e919aU, 0x3d958fcc3e647018U,
  0xbe46b6eebc7def9bU, 0x3caf5890bde968d2U, 0x3e844735bea3ae88U, 0xbec1a5fa3e26f44fU,
  0xbd8fe9bf3a718846U, 0xbdc024b6bdeae9c0U, 0xbd56492dbd8e1169U, 0xbd2761b7bcd1d3c8U,
  0x3d11c356bd833654U, 0x3c0a95103dad8b48U, 0xbe751deb3d31c3d6U, 0xbc72e3ab3ded10d7U,
  0x3dcb213c3d6e1196U, 0x3d9032783d934a7dU, 0x3c522c93bdb918b8U, 0xbd7b4e67bd1a34d9U,
  0x3e5c74673cffbb93U, 0xbccb8896bc5fb6beU, 0xbdfd5824be1bf0ceU, 0x3d5861b4bdccf205U,
  0x3ddfc49d3dc11742U, 0xbbe00ea6bea80929U, 0xbd2a2c273e5e061dU, 0x3b3e72493b438322U,
  0x3d808f543c58c633U, 0x3d2365c93e38a158U, 0xbcd36016bd11b75dU, 0xbd6b66503e0b0a0cU,
  0x3df10ee83d9ff7a2U, 0x3c91adcd3d53e08dU, 0x3ccf5d96bd919508U, 0xbde9c867bd9f5fadU,
  0x3ecb45dc3cd51cebU, 0xbd6dba3abd86a4a5U, 0xbe691edabe3a9c72U, 0x3e37a512bdab5e3fU,
  0xbcabf9223e09c670U, 0x3d1061c2be0a12abU, 0x3de56a1a3e2158fcU, 0x3da28b70bcd12d52U,
  0x3d1744bc3c587305U, 0xbc701ad33dd73cb5U, 0x3ca79f233e0362b4U, 0x3cccb094be454f46U,
  0x3d96de0b3de63a1cU, 0x3d686d053c07a193U, 0xbdc798d4bd93e0b9U, 0xbd531cc23e459001U,
  0x3e91a66d3df0f94eU, 0x3cb7a605bd61ba81U, 0xbc961653beaa5a35U, 0x3cbb535c3d521f93U,
  0x3dfe12613d74d87eU, 0x3d479febbeb78694U, 0xbd9d9185ba8b1d51U, 0x3d51eda5be1a7056U,
  0x3db14cfcbba902bbU, 0xbe294bfb3de674e5U, 0xbeb8c6cbba1bdc4cU, 0x3d8d16b93ea019b6U,
  0x3e202ab13c01e097U, 0x3e147f823d1b8421U, 0xbdfdea0cbc257a11U, 0x3d1ebf3fbd615b9bU,
  0x3de1e1dfbd75c204U, 0xbda523e0bdfc7ce7U, 0xbd72c0e3bf010982U, 0x3de2b30fbe056c3fU,
  0x3c183f77bda2cd98U, 0xbddb32b9be93a858U, 0x3d04c07f3d79c482U, 0x3d4dca59bdccb29aU,
  0xbdb1ce12bdd64499U, 0xbe1ec59fbc25aad4U, 0xbd4d6455bd066810U, 0x3e9679cabd7b2306U,
  0x3e0f71cdbbd732f6U, 0xb8b49aeebe2f3b71U, 0x3ce5902f3dcdd808U, 0xbd7bdeb43d9d44a0U,
  0x3e1d8fa73b693348U, 0xbda94b50be4bd44cU, 0x3c84a4a6be979426U, 0x3dd84ab93d91e0fbU,
  0xbdc11152bd1ec25fU, 0xbdba361bbd956e36U, 0xbd718baebd66e033U, 0xbc3fc9bfbd948c04U,
  0x3d80355bbd224fd6U, 0x3d83f5f73d7540ccU, 0xbe26a0263e53066dU, 0x3e2dc814bd412f75U,
  0x3d8217f6bdd15c1dU, 0xbb344b283d8cfdcaU, 0x3cacafb0bd60a882U, 0xbdb17c083dae14e2U,
  0xbd8a6f233d52458cU, 0xbd696428bc49de62U, 0x3cf3c357be88b947U, 0xbd1e85fb3d45589fU,
  0x3e2786fbbde25325U, 0x3ba2b3b83d82a8e1U, 0xbd9aed2cbe131b62U, 0xbd58fad63cc5ac22U,
  0x3d7c3a563d48dd1aU, 0xbe222d93be6c0478U, 0xbda61f4b3d02396bU, 0x3e9c5ba33e1ce035U,
  0xbe47b5dcbd700d80U, 0x3bb79801be09117aU, 0x3cfdd4fb3e09ebafU, 0x3d890c393d203a9fU,
  0xbda524723d15b448U, 0x3d077b85be67f671U, 0x3e2c12eebf0cb5a5U, 0xbd29b0063db7684eU,
  0xbdfc902abc733efeU, 0xbc32dc523e875b0aU, 0xbd5da6ecbd8711b5U, 0xbcb8b8de3e21b9efU,
  0x3d4251a73d1523ddU, 0x3e5f60243d7dfec3U, 0xbe53670b3e1b5214U, 0x3defb414be86efd1U,
  0xbe2b98d2be06efe3U, 0xbd196480be042667U, 0xbc8abf5e3e74a660U, 0xbda5ef7c3e176835U,
  0xbd9f6d17bda61fc0U, 0x3d39f4ce3d3e5b4aU, 0x3e3b2691be5a4536U, 0xbe1429d63e22cf20U,
  0x3cbe688d3e0288c3U, 0xbdf157f63dd5ff8fU, 0xbd7fdd3f3e3f4e03U, 0xbcd339f93d6e909bU,
  0xbcc86667bd2f0797U, 0x3e0fee5f3d964a5bU, 0x3dbd1c08bdf6a955U, 0x3cef01edbe31d1b7U,
  0x3e136a3b3d3fcfbeU, 0x3e178bc1bd35cabeU, 0xbd8523283d0e8b5cU, 0xbd15b5c63d7336bbU,
  0x3eba0eacbd8d0ee0U, 0xbde588213d174382U, 0x3bd4b19cbe3d457dU, 0x3e1f5734bd6534a8U,
  0x3e640a58bd934388U, 0x3d9b387abd9bafeeU, 0x3e068f4abe46fbb9U, 0x3dee3a6cbe491ee1U,
  0x3dde106bbcf46dccU, 0xbe15d97cbdd24ee1U, 0xbe61a25d3e1f5c2eU, 0x3e3904a53dfb7e06U,
  0x3e269d023dd528a2U, 0x3d3db6753dbb7366U, 0x3ddd18a03e419b0eU, 0x3cf05245bc7e0be6U,
  0xbe7418033d8fb775U, 0x3de1f142be30d065U, 0x3e1fae55be601511U, 0x3d1baa923d72fb2bU,
  0x3e2751f2be857086U, 0x3e3f1e9e3ddedeeaU, 0x3dba99ad3cd00f7eU, 0x3e365bf3be4d1592U,
  0x3e737d1e3d94a495U, 0xbe5f4c6bbe7b679fU, 0x3c0a228c3e75007fU, 0x3d8cc6a63e7de7adU,
  0x3dbfffd73db6085aU, 0x3e2dc7b1bd650538U, 0x3d5ff6b63c9dd564U, 0x3d954e773d4e497dU,
  0xbdf9353c3dee762fU, 0x3da84723be773a0cU, 0x3ded0eadbd8b01c9U, 0x3e3266ec3e1cd165U,
  0x3e808674be918cb6U, 0xbd6a1497bd8c6851U, 0x3ca333a1bdfec43dU, 0xbcc81bd4be4dba1eU,
  0xbd4803bebda07e7aU, 0xbe684cc7be65a338U, 0x3da386b8bd9cba80U, 0x3e6f6401bcbb9fd8U,
  0xbe340041bd4469a8U, 0xbb887493be8c932eU, 0xbca3277a3d210563U, 0xbd88d361bde8ef2eU,
  0xbe20dc14bd150fedU, 0xbc1e20ffbe345a05U, 0xbc11abff3d5589d3U, 0x3d55d7e63dbdfa83U,
  0x3e52d061be0d5c4aU, 0x3df84ce73df605d2U, 0x3d91e9e4bc8b6d4dU, 0x3e1edf2ebd3523dfU,
  0xbd8934ed3e487196U, 0xbe15b345becfbcc0U, 0xbce9ebf63d50b7a6U, 0xbe09fe6b3cd1606cU,
  0xbd4be78c3d899e8fU, 0x3e1492b7be51c731U, 0x3da65b573dd92daaU, 0x3d5558f23e0c89b0U,
  0x3cd4c3ec3d6fa445U, 0x3df474bfbebb75f6U, 0x3dd49ffdbe193a11U, 0x3de011fe3e348adfU,
  0x3e17787abe94a6c4U, 0xbd88e3853b312606U, 0xbd6720ebbd0c0617U, 0xbb510655be6fe5daU,
  0xbe09d836bcce383cU, 0xbeba2774beeb82f0U, 0x3d559facbd60bf9aU, 0x3cba4d68bd462f2bU,
  0xbe3cafa6bbf2ff40U, 0x3d07f58abe537a74U, 0x3db7937cbd5685f4U, 0x3d238063bda6abe9U,
  0xbd7ac2c73cdae571U, 0x3dc1beafbe9f6a7eU, 0xbe08d203bc8e2fe2U, 0x3dfeff7bbd519f82U,
  0x3d2a421a3b928a52U, 0xbdf2ccbebd969925U, 0xbe0cbe10be27c095U, 0xbe1b73653e072710U,
  0x3d42aecbbb63b3f0U, 0xbc7f099f3e2d0a89U, 0xbd6fb43abb1f328cU, 0xbc45ae083e6ef69bU,
  0xbdc76611be3e8775U, 0xbd9947b83d9638eaU, 0x3cd909fdbde829edU, 0xbdd8b955be058aeaU,
  0xbe1beab0bdc655b6U, 0xbe285d77bc91f086U, 0xbe015f843d97bbefU, 0xbdf161763bfc7c66U,
  0xbd70a29dbf01e2fcU, 0xbcd9a93e3cc4f331U, 0x3c919cf4bc1c2294U, 0xbd956060becf42a1U,
  0xbc87c68dbc8e933cU, 0xbea98a18bea46cb2U, 0x3dbd696bbde7be47U, 0xbdfa30a7bcde5ecaU,
  0xbe78fefebd2d69a3U, 0x3d9a96b1be8a2fd2U, 0xbd9fbc98bd685852U, 0xbd55f62abd18c320U,
  0xbdba65ddbe14143eU, 0xbd483dffbedff9a0U, 0xbdd288653d048d22U, 0x3d37fce93d07a31bU,
  0xbd873273bdbc0159U, 0xbe3d584cbde8c727U, 0xbe0022e4be34aabfU, 0xbe7827a3be1fd0caU,
  0xbcf7208fbe282b99U, 0xbe3611c8bcff9ea0U, 0xbd93395dbdd7bb2aU, 0xbe0bdf843cd713ecU,
  0xbdd0448ebe88fd52U, 0xbe165d6abd20d6cfU, 0xbd227ee9be3f2f40U, 0xbda21008be852befU,
  0xbd6d22c1be3d9581U, 0xbe0a5e14be6ce1f1U, 0xbe9294553c915511U, 0xbe3f2f50bcd3d641U,
  0x3cf2cdc2bdb743d4U, 0xbc8beee6bd3cb37eU, 0xbd8bd642bcf393f2U, 0x3de0f389bd9a5747U,
  0x3c91d2693bd3e8cbU, 0xbd79c2883d6bb484U, 0x3d8a948c3c0cb371U, 0xbe71b8c73e21739fU,
  0x3e366f463c3f6a51U, 0xbc9e9175bdec3c5fU, 0xbe630ed8be3a3ebfU, 0xbdfb28013cd25241U,
  0x3e83ef24be075337U, 0xbda2d567be026223U, 0xbe8386cbbe52acaaU, 0x3d3f61503cc08a1bU,
  0x3e5dd0b8be7b2ca2U, 0x3bb0b1dcbdbddf51U, 0x3d8f11d3bdaaae21U, 0xbbe9add2bd511777U,
  0xbdb9fec7bc6775e7U, 0xbd65ab35beb540a9U, 0xbc59a1803dabb472U, 0x3e8cbf6dbd19bc5aU,
  0xbbe954563df15fa4U, 0x3debb4b4be1b2da5U, 0x3d136c3a3d42346eU, 0x3cc357563e0256b8U,
  0xbdc02d0f3da57547U, 0x3dbfd15fbe4c0512U, 0x3e27abadbe72b5cdU, 0x3e2dbfa63df000dcU,
  0xbbf130b23d262eb7U, 0xbd48eeb3bd8f7409U, 0x3d92be61bdcb9d01U, 0xbdbf5b0d3cb0da31U,
  0x3d04b5303d3f0630U, 0xbe053322bd9e3b13U, 0xbde6c6243ded4a04U, 0xbde40d023dc7e3c9U,
  0x3d28d012bda8ed4eU, 0xbc05b6513d5b1b19U, 0xbddd55cebc4446beU, 0xbd7451073d27d43bU,
  0xbe043e2bbd80006cU, 0xbb9aab5cbd8330c7U, 0x3dc68318bead84afU, 0xbdf240e2bd4012ccU,
  0x3d20fd0f3cd5d448U, 0x3ce67852bce3cf25U, 0x3d2d895bbdc8c7e9U, 0x3d733a273df915f0U,
  0xbc872e203d12cbafU, 0xbdf107a4ba344b26U, 0xbe68fc163e1b4d15U, 0xbda140d53e60b0c5U,
  0x3d2da4edbcbfe0c3U, 0x3d78aadc3dd6cdadU, 0x3d7b3dcc3cfd4574U, 0x3dd156eb3dc4bff7U,
  0x3d97d4c5bd02bb5fU, 0xbc25df9bbdafa7d2U, 0x3e26cb8bbe9f8ee3U, 0x3de03b343dfb3ac1U,
  0x3e2f31ffbe401004U, 0xbcddf333be094a29U, 0xbdfd5320bcd803c1U, 0x3d0952c7bd17cf9eU,
  0xbcd961553bc605ffU, 0xbde1b9cdbe3e7eb0U, 0xbda8c400be11aabeU, 0x3dbe848ebdebfbd3U,
  0xbd2105693d4e7bdfU, 0x3cee1fdabe15c3caU, 0xbc5e40d63dbda48cU, 0xbdb77cd2bdadef4dU,
  0xbe86427dbd9febadU, 0x3d0fa03fbde25399U, 0x3e282996be128ddbU, 0xbceccbdf3d7dddb9U,
  0xbd3595b03d4ff871U, 0xbb8d89d2bdc8f3dcU, 0xbcd073a9be00ba69U, 0xbd82d4a03c36b313U,
  0x3d36ccf0bdb5d58aU, 0xbbc9d1b9bd1f3049U, 0xbe3aed823d99bcb5U, 0xbd83284b3d86cbabU,
  0xbda170cb3d3102deU, 0xbb4fff493c9af1d8U, 0xbcb53945bdb9b334U, 0xbd424694bde14e44U,
  0x3cc9d6ebbd0b5e8fU, 0xbe20da52bd5afcc5U, 0xbd4729c9be070339U, 0xbbc66b02bd60bcb2U,
  0x3d99483abc21f224U, 0xbd7e3c0bbee1a14eU, 0x3c9452873dd54c45U, 0x3d98327fbdc81c20U,
  0x3df6989f3d79cf45U, 0xbdb70c133dc40a79U, 0xbe28c8ce3cbdf19dU, 0x3c6d5fbc3e34dc57U,
  0x3cebd7713d9f3837U, 0x3bca9fb33d9ebb57U, 0x3d83415ebe014ef1U, 0xbd8cfebbbe1781d2U,
  0x3ed9c5c6bd5e552bU, 0x3d196066bdbd2114U, 0xbe21f449bebfcde5U, 0x3e2da39b3c886a2bU,
  0xbd8c9896bb6382b7U, 0x3d083adcbe20770dU, 0xbde665cbbdde5391U, 0x3d6c674a3d9bfc16U,
  0x3e0a4a853d890d86U, 0x3dbf163f3d12dd7aU, 0xbdeb73393d5e5e3cU, 0x3dadc494be088e37U,
  0x3d7f6d10be099267U, 0xbd2519683d21411bU, 0x3d679fc73cf3250eU, 0x3d2e748dbdd0ede1U,
  0xbc8efe313be9100dU, 0x3cac22443d9bf339U, 0x3df050e43c845d9bU, 0xbe195be5bd282c38U,
  0xbc38cfb23e355f41U, 0xbcb2caa0bedc9638U, 0x3cfcb45f3e5942c4U, 0x3d8ed73bbc2a432aU,
  0x3e194f8cbc7041a1U, 0x3ddc17e23e492eb7U, 0xbd8fb5a3bdcf02e6U, 0xbcdf92203c500cf3U,
  0x3d8516b73c42f8daU, 0x3d43fdc93dc7ed1aU, 0xbd5c17c1bd9ffcd6U, 0xbda1b814bea3fb72U,
  0x3ec6926bbd27fe27U, 0xbd8534493d9e63baU, 0xbe108359be4ae444U, 0x3db5baf43b8f047fU,
  0x3d515dcc3dfb307bU, 0x3ce87f73bea6f2f1U, 0xbd8f8f6d3e13e8faU, 0x3d0b400abe3fd66dU,
  0x3aabccc1bd2a2922U, 0xbd514827bcdf8eb9U, 0x3dce0bafbe3d323bU, 0x3de2bf67bc86b921U,
  0x3c8155ef3e2ef802U, 0x3dc663a0bac6be19U, 0xbd9f4383bdc96914U, 0x39997b03bdc92db1U,
  0x3e9be51e3d808273U, 0x3d9be3f6bd6f889eU, 0xbe63309bbe187491U, 0x3dff6257bd9c75fdU,
  0xbeaba685bcfda095U, 0xbe105871be12ccf0U, 0xbd93c584bead7e15U, 0xbe2b33c6be061eacU,
  0x3d57d42cbe3cb3bfU, 0xbce390963d890503U, 0xbe7098483cc6db70U, 0xbe03e4973dbfc759U,
  0xbe678f86beaf7090U, 0xbee2621a3e0156eaU, 0xbe49b03bbd35f448U, 0xbe59682dbe2090d2U,
  0xbef23fc7bd018a4eU, 0xbe56e3d63d41de94U, 0xbe316ec13d6eded8U, 0xbe957720be7df044U,
  0xbe08dcf73ce36556U, 0x3d363b3fbeb7b670U, 0xbd8599d4beb62d6eU, 0x3da84f7abd6790aeU,
  0x3ddd26bdbd9bb4deU, 0x3d8136be3caab207U, 0xbe9ad6c13d37628aU, 0x3b298c333e6df96aU,
  0x3dece181ba92709aU, 0xbd0a7fb23dcc2557U, 0x3dbf4227bd88a588U, 0x3dccd81cbc27a5eeU,
  0xbe52df193d2b7a5aU, 0x3d0184323cff9c4bU, 0xbd408d5ebd57831bU, 0x3ba1af58bdd8b0ebU,
  0x3e0af6adbe20be72U, 0x3d0a8552be965edbU, 0xbd8182333b9d65f8U, 0x3d739747bdb7cac9U,
  0x3d0863153d14b4d3U, 0xbdd34687bdca751fU, 0xbe152b01bcadd5a3U, 0x3afbf6ab3d9ff56dU,
  0x3d5a02293dd417b2U, 0x3e5a53c8bd5bd3d1U, 0x3d5c20c4bbaaa5c6U, 0x3d7fb442be8423dbU,
  0x3e563b57bd0f372cU, 0x3d1837c0be2999c5U, 0xbd7420c4be525096U, 0x3dc6ad4bbc87aa86U,
  0xbe16731f3de9db83U, 0xbd87c682bc447367U, 0xbcd0c65f3dc7eeafU, 0xbd8eb3e33db2c94dU,
  0x3d8d189abd65bfe6U, 0xbc0b1d883d873643U, 0xbd9ba0babcf8925fU, 0xbe69f9273d985525U,
  0x3ce8ba5ebd1031cdU, 0xba304c9d3ad2efd0U, 0xbce8ba933d08c573U, 0xbd3f9dfb3e355743U,
  0x3d3b92a4bd210fb4U, 0xbd1d702e3cbd5fbdU, 0xbd4391fdbde16076U, 0xbd1e4e9d3be02979U,
  0xbd2e1cef3cb26a7eU, 0x3d2a4593be56259bU, 0x3dd9b33cbe24a01dU, 0x3db79694bd8720e9U,
  0x3de774b63dad0c23U, 0x3d13952a3d5d20d5U, 0xbe6bbbe83d951299U, 0xbde65cb33e024553U,
  0x3dea3a883cf2aad8U, 0xbd340d163d1ff58dU, 0x3d92f7783c8dd23cU, 0x3dbef0633dd63a6cU,
  0x3d54227cbcf6be06U, 0x3d2b14c4bcb7cd1bU, 0xbc4be4e7be72c146U, 0x3baccc523d432a20U,
  0x3e4f9ecebdb92f3eU, 0x3cc37dfcbebf3e05U, 0xbdc9248abd6e1527U, 0x3d827c6fbe6946edU,
  0xbdf8d866bdaa244dU, 0xbe25aa36be4e81f2U, 0xbda677e4be8d4532U, 0x3da89813bdbf3552U,
  0x3c4227f1bba8cbd8U, 0x3dbbd497be5a74baU, 0x3c8dfb45bd068ccbU, 0x3cfda2f3be94e140U,
  0x3e272371be015936U, 0xbd2530c7be40a6ccU, 0x3df22f50bdf223baU, 0x3db94471bc466d0dU,
  0x3c3821963dfdd29eU, 0xbd5808c4be2605bbU, 0xbc4abbd3bd6a978cU, 0x3d529a3fbc1dad3eU,
  0x3bd98c2c3d8da383U, 0xbcb5540a3d8fa80bU, 0x3da5248a3db34944U, 0xbeb2cf773e90dda0U,
  0x3d032905bd4fc658U, 0x3cb7c54c3e19aa05U, 0x3ca7ef34be01eb2aU, 0xbdd111ffbd720e07U,
  0x3d890c1dbdac057aU, 0x3ca767db3d467002U, 0xbe6d8b893e000626U, 0x3daa6cf8bd152539U,
  0x3d9b42fcbbb5d092U, 0x3dfb3f64be8c4d7eU, 0xbd0d4ea5bbbe1d19U, 0x3dbbaee1be57b89bU,
  0x3db6ebcc3d393dfeU, 0xbe3dfa9e3d1811f6U, 0xbe362c87bc50c556U, 0xbd6f61f23e82c8fbU,
  0x3d9c06d13ce667afU, 0x3dd4d4e73e12fc15U, 0x3d962861be23e926U, 0x3da1d202bd719f2eU,
  0x3de2f4393de2c1b7U, 0xbd47937bbe6793d5U, 0xbca6d1adbe1b67b4U, 0x3d673babbd8f5edbU,
  0x3d5cdfe5bf24945bU, 0xbdc13169be95f532U, 0xbd588dc3bd429ff1U, 0xbda29ff4be8960a3U,
  0xbe58d818bb86d3f3U, 0xbef1009cbf0e413dU, 0xbde5e16dbeb8e287U, 0xbd2359d0be281083U,
  0xbe309f46bd198cfbU, 0x3e06d6ccbf0b7b70U, 0xbdadeff9bde5f8e5U, 0x3cc54d69beda50c1U,
  0xbd971b5bbe24b778U, 0x3d8f0d76bf20b470U, 0x3e2489e0be199d5eU, 0x3e024cd9bdff8328U,
  0xbe843b683e16e5f7U, 0xbe3dd8773eb1b0f3U, 0xbe0baaef3d780523U, 0xbe62d05bbcd56b95U,
  0xbe1e33f8bdfacff2U, 0x3e5172f5bdeece44U, 0x3d4c8146bd6c858aU, 0x3c99cd85be4772b6U,
  0xbe8afb16be88573eU, 0xbe69616ebddd9965U, 0xbe13cb7dbdda8d66U, 0xbdf823803dc4736eU,
  0xbdd324d4be22a207U, 0xbe50365a3ed8348bU, 0xbe5f52073e82c716U, 0xbde23454be15936dU,
  0xbe65a5efbe4f0bc9U, 0xbe2d2a5e3e07fff5U, 0xbda25b16bdb1772dU, 0xbe277271bed05fbdU,
  0xbe5d31d7bdcda668U, 0xbe31a50bbdf874c4U, 0xbba3860ebdf9721aU, 0xbe0a1ce0bdb1e7edU,
  0xbe8c8986be71f436U, 0xbe19653cbe77616dU, 0xbdc266efbe49b1f5U, 0xbc3af2e7bdd6845fU,
  0xbe653256bdc39248U, 0xbe66155ebe21e662U, 0xbe8fba48bd9e8978U, 0xbe98e4833d25eb95U,
  0xbcf81e613d1a54a5U, 0x3dd79d5a3ddca0daU, 0x3e08b7b53d12a42aU, 0x3e14a5bfbd2fa0a9U,
  0x3de39c0a3d638b81U, 0xbe66966fbd85c766U, 0x3da14b833e146b12U, 0xbe4480c63e25ec90U,
  0x3e0afebe3c0524ffU, 0x3a247bcf3ddfd298U, 0xbbe59ad6be27dd55U, 0x3c5595413e22195bU,
  0xbd79ddb93e2dc383U, 0xbd44a51dbdbf73dcU, 0xbe3b7dc7be3112e2U, 0xbd6a55553d1f8536U,
  0x3e0f7f383e854da3U, 0xbcb1cc9bbc12c8c0U, 0xbd01558ebe836311U, 0xbd8d42813e83d91dU,
  0xbd782e8e3c8901d4U, 0x3e467cd73e3da7adU, 0xbe2a51f03d9a8860U, 0xbc80a60ebdd1bcfaU,
  0x3d70186cbdcf775bU, 0x3d813aab3e14b906U, 0x3d8172183e00de5bU, 0xbc34edccbab77b4bU,
  0xbe09e3e73dbb8a64U, 0x3cca3e463eab57b8U, 0x3d5e14f83e66e926U, 0x3d241c3e3b3262abU,
  0xbd9f74f23dcb5405U, 0xbe0abf7d3db77871U, 0xbe677d84be847a63U, 0xbc4151c03d8d5837U,
  0xbe411634be24a0f7U, 0x3dc338d33d334010U, 0xbe320c89be5894d7U, 0xbe1a2cc2bd7f4eadU,
  0xbe08ace4bc929d53U, 0xbc411093bda75dd5U, 0xbd41359a3db8aa0aU, 0xbd371cecbd7766c5U,
  0xbe73957ebdccb4b9U, 0xbe006c1f3d9b05bdU, 0x3e520ee33cd542f1U, 0xbd6c3fb7bde5225bU,
  0xbd55ea09be36404bU, 0xbddb6cde3e4ddbe7U, 0xbdbd31e7bda6dae3U, 0xbd91c223bea071d6U,
  0xbe476fe6bdebee1eU, 0xbe57df98be275db8U, 0x3e2d15ab3c4ebad5U, 0xbdbacd7cbd8786a8U,
  0xbded2412bc93c62fU, 0xbde50103be26855aU, 0xbe2189f5be14daf1U, 0xbe2953f93e63dbffU,
  0xbed6b6ccbe4fa677U, 0xbe4ddbf3bdeca532U, 0xbe7dcb2cbdb3b99dU, 0xbd396e2ab9ab9cefU,
  0x3eb08eee3bc7650aU, 0x3e2f1349bb87b00bU, 0x3e00e6a0be848478U, 0x3e021f213d0fe7d1U,
  0x3db6c3073df30537U, 0x3c6c30c9bdf93a3fU, 0xbe8ddd373e424572U, 0x3e0574393e610be3U,
  0x3d3f3d173d7391b4U, 0x3e36103dbcbbce74U, 0x3e388df03d9c4974U, 0x3e184e3a3d92ab95U,
  0xbe60e2513e0dc0dcU, 0x3e0e5a5dbcec2c92U, 0x3d100008bdbf593fU, 0x3e1301cc3d2f5300U,
  0x3e266c163c829c4cU, 0x3d4b8880be25be14U, 0xbd35639cbea2460fU, 0x3d28c53f3cbc2681U,
  0x3d38db8dbc2604f6U, 0x3cfd6721bd323a70U, 0xbec012473e437c1fU, 0x3d3c38843d1f48b5U,
  0x3d83fd8e3dd59345U, 0x3d5e4d84bcdfbef7U, 0x3d99f8143e0a18edU, 0xbc34b35dbd93641bU,
  0xbe8cad63bd86df21U, 0xbc5af4af3c5ba529U, 0x3e5cf505be177908U, 0x3e0b6ef63dc60d29U,
  0x3e67b989bced80a7U, 0xbe55517cbe239fc7U, 0xbe1dc520bee61d8fU, 0xbdecb02bbdbfa8c9U,
  0xbe439bbebe0f3c4cU, 0x3c7b3a33be2362e1U, 0xbe9fee2ebd5e862dU, 0xb9937b1cbdb46a63U,
  0xbddc4897bde48938U, 0x3a22f564bda28bcfU, 0xbda7b9483c2349ccU, 0xbca14f9abe2ef274U,
  0xbef1d5eebdeffa63U, 0xbdd70d793b28f198U, 0x3d7dc8a0bc728b8dU, 0x3d95aafdbd053e4eU,
  0xbc2081053dec887cU, 0xbd3ac8fcbe892c52U, 0xbcab2023bda8bdd1U, 0x3dbe7e293c723105U,
  0x3d7be53a3ce399b6U, 0x3d39a7223df4fe0aU, 0xbd8d6e50bd398c24U, 0xbdd40a50bde32671U,
  0x3e059d8a3da94bbeU, 0xbcaee28f3dd11a33U, 0xbc831143bda99410U, 0x3d8d035fbe295c4cU,
  0x3c1c58d23dfa6fc0U, 0x3d2c551ebd5c9d14U, 0xbdbf9e97be315e73U, 0x3d2c508ebda43fd4U,
  0x3d6b1c473cb6e5e2U, 0x3d84e109be53755aU, 0x3bee02433d472337U, 0x3e00e3143cd210d4U,
  0x3d9fdaf83debf755U, 0xbd7ea6233d940260U, 0x3c37e170bdde8ec9U, 0xbc23d2b7bc82428fU,
  0xbd14c6033ce22991U, 0x3d9064cdbd9255a1U, 0x3de2d1efbd12d205U, 0x3d162e5abdd60682U,
  0x3d8ddb013c32f61cU, 0x3ded710bbd72f3e6U, 0x3d22b271bb6af33cU, 0x3daea5b1bd1f0a29U,
  0x3e43ee2a3ddcda88U, 0xbd0e675ebb7ee336U, 0x3c0282b53d11639bU, 0xbd7488b03c971b57U,
  0x3d2a96a33d681897U, 0x3dd860983e2e447eU, 0xbd02f3013d8967aeU, 0xbc8edcb73e89dfe1U,
  0x3d56ad6c3d21ee4eU, 0x3df1f02f3e0881aeU, 0x3d3069223cd6e093U, 0x3ce86861bdc8b34aU,
  0x3e0f6922bce34111U, 0x3c1ed81e3cecdf23U, 0x3cbe518b3d7af5d9U, 0x3dd05cdfbd9eaa04U,
  0x3d461fb6be8bef95U, 0x3ce8f78e3e033610U, 0xbb7720223d9aad8dU, 0x3ca3b093be2a2777U,
  0x3b499b98bd275dd8U, 0xbec1e2d9bec454b7U, 0x3e1cb09bbdb578a0U, 0x3b4ec9f3be2fb81aU,
  0xbdc5387c3db5d862U, 0xbcb91748be0ace55U, 0x3d1688a3bdab1223U, 0x3bd6c694bda6c176U,
  0x3d86f3be3cba9724U, 0xbd1e3794bec44598U, 0xbd1265673ce9f201U, 0xbd2d4a683db4b7b1U,
  0x3d215358bd935af5U, 0xbd23a0da3b707919U, 0x3d643f7e3dcd6498U, 0xbd09e54cbe8b1baeU,
  0xbdcfbeb03cfbe24cU, 0xbe90c99abe04b92bU, 0x3e0b5491bc1e5f58U, 0x3d9365213d239bcdU,
  0x3d1b130d3d52e49bU, 0x3de927cfbd92a51fU, 0x3d3a35fcbdb9f7a4U, 0x3d805f253c425819U,
  0x3df634e5bbe7ba4aU, 0xbc3fb533be8125d9U, 0xbd97f8a33d985a91U, 0x3dbbdb5b3d93a84fU,
  0x3d3baeb3bce0b83cU, 0x3c9dcb193d3be45eU, 0xbd9633bf3e0a3960U, 0x3d0c9ae0be8bb4b6U,
  0xbd22e750bd74f422U, 0xbeaf47afbcb192e1U, 0x3e23e5febdcb9362U, 0x3e2257febd75d14bU,
  0x3dd72bf8bcc4e497U, 0x3ddf6da6bd1bff31U, 0xbe0cd48fbe827ba0U, 0xbe0d49103c72ab24U,
  0x3e88585ebcc1f727U, 0xbc577deabe9d4f34U, 0xbe539c083e34c9bcU, 0x3da16708bd5ab917U,
  0x3d88463dbb8c3005U, 0xbd1cbb67be3f051cU, 0xbde0e3a8be379f8dU, 0xbdcb24e4bc7bfae5U,
  0x3b83433abd8c1ff6U, 0x3cff3632bdf6681aU, 0xbe5b6821be323b6aU, 0xbd05f3f0be827c33U,
  0xbd9d4d33ba5562a7U, 0x3d09f3f1bcc22714U, 0xbcc9fe683c327cd4U, 0xbd4680ccbe3c6b3fU,
  0xbe22d7503d93f638U, 0x3d8c87583dfada14U, 0x3db0ef00bd64acbcU, 0x3bdf6b79bdb313f4U,
  0xbc171c9fbdc49704U, 0xbdc79f553d6f2ee0U, 0xbe396d83be3bf122U, 0xbe0b4356bd1260e2U,
  0xbe3d7668be68f546U, 0xbd868722bcc4b091U, 0xbd128da0be14a6fcU, 0x3d223966be24a9c0U,
  0xbead59babe2000e7U, 0xbdda61fbbdeb1ebdU, 0xbdf5cfa0bd163367U, 0xbdf2e602be315ab9U,
  0xbe70d424bd8d64bdU, 0xbcb838043c746d58U, 0xbe343357bbfeb828U, 0xbdaadd58be229d18U,
  0xbcb902f2bdb337a2U, 0xbde8762dbd5026acU, 0xbe77d158be52723bU, 0xbe62f7f7bdb017d3U,
  0xbe72bd53be0efc28U, 0xbdf51063bcde0dc5U, 0xbdf32ca6be00efd7U, 0xbe0de7ecbdc65a13U,
  0xbe030819be48a38bU, 0xbdfacfc3be21bc2fU, 0xbe6f5029bc22743bU, 0xbe1acbd3bd8fad5dU,
  0xbed58da3be36bd83U, 0xbe690a83bcb133d0U, 0xbd53168c3db0c1c8U, 0xbe21c048be0a4fc7U,
  0xbeafbcbdbd1a388eU, 0xbe1c401d3e251804U, 0xbe5f4191bda9eb01U, 0xbe59f7813c062decU,
  0xbe1ac7bfbe17da8eU, 0x3d5ec3403de07f86U, 0x3de8704ebe0bd962U, 0xbe88ba0c3c90bce3U,
  0xbe4e05dcbeb78246U, 0xbea3843dbdb8805eU, 0xbe87843abe2d0639U, 0xbe6d789cbddf1dd2U,
  0xbe824d74be8a9b87U, 0xbeb8e3ac3d027d26U, 0xbdfed1b53e6cd49eU, 0xbead79bbbe4cb8a1U,
  0xbe0667f33d63664aU, 0xbe628a923dbf414bU, 0xbe2d2e69be3abcb7U, 0xbe2fdbc83e1923eaU,
  0xbe42df48be120759U, 0x3e284ea43d009429U, 0x3d134989bdf90688U, 0x3ac15e0abd849ec0U,
  0xbe107322be2395ccU, 0xbe54da643d81db5bU, 0xbcb99d5e3dd0fca1U, 0xbe4a1b16be19a013U,
  0xbe8c1590bd991e04U, 0xbd82487e3e1013dbU, 0x3d23d83e3e401730U, 0xbe842c40bdc4e3efU,
  0xbe558088be0c3303U, 0xbe698f073e437cccU, 0xbe3bbf03be17e14eU, 0xbe72ad77bd579457U,
  0xbe592963be870262U, 0x3d69bca7bc71c39eU, 0x3dfcc4f9be6a5731U, 0x3e039777be2edf44U,
  0xbe825eb0be0cc124U, 0xbe308ad5bd9da85fU, 0xbe3ef207bde1009fU, 0xbe0ec81cbb3cdd64U,
  0xbe0bce04bdd90a87U, 0xbe564bef3b444127U, 0x3c0a36043d6ce703U, 0xbe39c823be86171dU,
  0xbe584e8d3e14149bU, 0xbd947459be1d0275U, 0xbd4fb479bcdcb030U, 0x3cf2443e3ac78c3fU,
  0x3e0c0f4dbd1803c1U, 0x3d8bb0493e12a7a1U, 0xbe46cc28bd8970e9U, 0xbe442cb0bdccf6c0U,
  0x3cbc847dbdcf2edcU, 0xbe2fb3f53e169447U, 0xbdc73eb4bd9df920U, 0xbc67a295be53ef08U,
  0xbcbd04febcf97c69U, 0xbda681503e15397cU, 0xbdb315093df8ee31U, 0x3d2782a5bdec7855U,
  0xbe2159cebcde9ce2U, 0x3cfc82763e29ad7aU, 0x3db5546cbcd76ca3U, 0xbd9084b0bc116248U,
  0xbd2392dc39c4f728U, 0x3ba133d83dc1484fU, 0x3be7a5fb3d118777U, 0xbdd57100bdc33bbbU,
  0xbd498a10bda2fc83U, 0xbe0619223dc45afcU, 0xbdb9b6b03d941a58U, 0xbd23a5c03cebde60U,
  0xbe66e1223d3dabe0U, 0x3cd8c3d13e031aceU, 0xbce2927abcfa8cf0U, 0xbc0f5763bd77ac8fU,
  0xbdaf216a3d913d7bU, 0xbd68daefbd52d3fdU, 0x3c0a841bbe953194U, 0xbd0b388c3e11a7d8U,
  0xbd004f193d5437d4U, 0x3d99d9cebc42680cU, 0xbe8e842e3d430612U, 0x3d10b436be47a834U,
  0xbcae0c3bbe060b7dU, 0xbe111c203d2fd11eU, 0x3c1e527e3e35cba1U, 0x3d97242cbd99b18dU,
  0xbf03217ebd2d516fU, 0x3d76bb6a3e4d6859U, 0x3e1b0495bdafeae4U, 0xbe2783d63e2e525bU,
  0x3c1677d3bdb9c8b5U, 0x3cf6c9843daeae32U, 0x3dffc6943d3c341cU, 0xbd4a11e03d3657c2U,
  0xbd7229f03d94e09cU, 0x3cb92081be0d9439U, 0xbd354e4bbc611c81U, 0x3dbe5ebfbdd28009U,
  0x3d31688dbd164604U, 0xbd65b3f1bc9c45eeU, 0x3c82bddd3db95fc4U, 0x3d6e01353df98a08U,
  0x3db3aad5bd11f06fU, 0x3d0185373d1282dcU, 0x3e11db463c0383c8U, 0xbdc671743e000cb5U,
  0xbe146741bdd0109cU, 0x3cf74d573e58a491U, 0xbc79222f3d54966eU, 0xbbdef472bd697b6bU,
  0xbd82cddbbd31eadcU, 0x3dca0906bdd46fd3U, 0x3d835265bd04a6d5U, 0xbd08fd45be6934bdU,
  0xbd921400bc5471bdU, 0xbded3c4bbe40eff7U, 0xbca919933d59a46dU, 0xbcb94eb33d98197bU,
  0xbe0103f53cf64f46U, 0xbcf9b0753de2e0c1U, 0x3e3c4e663d9ec518U, 0xbdea3ecf3d261ee0U,
  0xbdea64c2bbb5fddcU, 0x3dbeff2d3e4d95cfU, 0x3d6532c33da4d87dU, 0xbd224c1c3d5901beU,
  0xbaf36b223e06f203U, 0x3e1b1415bdf271d7U, 0xbc45eefc3e20de85U, 0x3d8e270abe54b6e3U,
  0xbdb1d11d3c149190U, 0xbe20ec35bd66c8acU, 0xbb0af65b3e1917b3U, 0xbcb616123e7aad8cU,
  0xbd72ea643d023fd8U, 0x38d44b683e0639fbU, 0x3d8d01ddbc370bc8U, 0xbe0977bf3e153a97U,
  0x3cc5d11dbe8e9887U, 0x3a816fe93d12ff6eU, 0x3c5d17a33e1fdd22U, 0xbd394eb0bdd2a2dcU,
  0xbdacc4f7bd2ee763U, 0xbe3aeaadbe85bccfU, 0x3caddd33bdf2d0b8U, 0xbdfa159cbe2f39deU,
  0xbe08879fbcbc4439U, 0xbd4c3164be8a9844U, 0xbdd087e2be334027U, 0xbdd29051bdf7572aU,
  0x3e43d068be12b591U, 0xbb0425a8be8bed34U, 0xbe22b534be1e81acU, 0x3a2c6b50bd0eeb6fU,
  0xbbb6e9cdbe84500eU, 0xbe426a9cbce91824U, 0xbe5526f9bc11cef1U, 0xbe666231bd9ed0f0U,
  0xbea712b4be772a54U, 0xbda872a9be43287aU, 0x3d916d8ebe50bf0fU, 0xbe1f5bb3bdc74c86U,
  0xbe9bb9b2bdfb7ae8U, 0xbd3e7c09bdfc9659U, 0xbd388c84be00747eU, 0xbe5d379fbe22b8caU,
  0xbe236329be183000U, 0xbde3a324bd94a453U, 0xbea8a849bd88d54bU, 0xbd5c9330bde27d0cU,
  0xbe20b85ebd98078cU, 0xbea57959bdf2041cU, 0xbeafcd82be3870b6U, 0xbe5612833d87bc2aU,
  0xbe05ee4cbe49be3eU, 0x3d08a0ecbc9fd992U, 0x3e253256be6eb873U, 0x3c14f0aebdbd7a6bU,
  0xbe07edb4be010b44U, 0xbdfbc8b4bd573d7bU, 0xbe07f2003d044ce2U, 0xbe87bbafbea0e753U,
  0xbe0abb55be5717f1U, 0xbe0f86f43e2814dcU, 0xbd7778ff3e6364c0U, 0xbe009bdebe92f4c9U,
  0xbe185487be42c1e0U, 0xbe112f85be2611f9U, 0xbdf88c9bbdddb5c7U, 0xbe2be6fc3c1f9375U,
  0xbe4b3f14bdbe8cb9U, 0xbe072e38be12b139U, 0x3d23b017bd6919faU, 0xbe896a3e3dcea99eU,
  0xbdf09aaabe3391f2U, 0xbe6f1cb1bc9f466cU, 0xbe298139bdb3e5daU, 0xbe2e698bbdc5bc04U,
  0xbe64c6d9be148779U, 0xbe2921b4bdd40115U, 0xbd8d41e4bdf783d8U, 0xbdcc2b0fbb9ec177U,
  0xbe30fe1f3d57c5d6U, 0xbc3df9573e381abeU, 0xbd98c85a3d7cfa1dU, 0xbb6daa903d4e0842U,
  0x3d5ea384bd799a64U, 0x3db225863e3642b3U, 0x3d2a7af2ba84c894U, 0xbb2e95233d88ce0eU,
  0x3d6e03c8bdcdbd67U, 0xbe5712773de68bf0U, 0xbcc424fd3dc45188U, 0x3c2ac53abde325e1U,
  0x3e8aabc93c51f0e9U, 0xbdc8bc553d80fd88U, 0x3d33289abdb4c0c0U, 0xbe078e5a3d20ca75U,
  0x3bd720cb3e261001U, 0xbc959b3f3e72bc00U, 0xbd1ab8033e01d196U, 0xbd6d52603e80baa2U,
  0xbcb89a1b3d064185U, 0x3e71eb913e412a11U, 0x3caeeb73bd4860f8U, 0x3d9da955bd0b48d1U,
  0x3d93c6bcbc9a4026U, 0xbd19af963d2a00a7U, 0x3d5296033e1eaa20U, 0xbd8af479bd53d03dU,
  0x3e718f60bb03a507U, 0x3d9061743e1e5046U, 0x3dcf84b1bc44231fU, 0x3b9a755cbd93b311U,
  0xbd835206bd6e9148U, 0xbd6d861fbe041fa1U, 0xbe3a2bdabe3b1b70U, 0xbb8b5deebd65b3dfU,
  0x3e24986dbdc0c3aeU, 0x3de8e3933c2cb4c0U, 0xbe44d1b13e04b9d3U, 0xbc3ec8773e9a8f87U,
  0x3dc618ba3c9d5987U, 0xbe4941593db7d7c1U, 0x3d5a82cabd05eda9U, 0xbddf4db1be445f63U,
  0xbd5e73383c528b7aU, 0xbdb3f17f3d884c10U, 0x3cc53ab4bbb8e509U, 0xbe36933ebd8106e8U,
  0x3cf097fb3de4c687U, 0xbb418aafbb9b2745U, 0x3b8dc1123d8d7307U, 0x3c5be5593df27143U,
  0x3d162cb93d4d17f1U, 0x3e1b1ac93dd1c44cU, 0x3c5b1d34bb8a9af3U, 0xbd5b8fdf3dadb34bU,
  0x3d14d8d03db73e27U, 0xbd6cd9503c817d1bU, 0x3aeb6e8cbd8bdb7fU, 0xbbda7761bd90df22U,
  0x3e08ff293d97a413U, 0xbd19cc6e3dd1250fU, 0xbd987eae3d5018e4U, 0xbc86df0f3d0a748bU,
  0xbe5456fcbd42e235U, 0xbc897fa73bd6e791U, 0x3d02e1303e1a79c2U, 0xbd7cb11a3d46be53U,
  0x3db2b4123de89d82U, 0x3df075383cb8dfe6U, 0x3e1ba2053ca6b151U, 0xbe262782bdddd1b6U,
  0x3d5722ea3ce09d64U, 0xbd8638ad3d633d79U, 0xbce70a30bcacddabU, 0x3da6304c3d488bc1U,
  0x3e0f94cf3d72cdc1U, 0xbd87b8963cfb268eU, 0xbd524ac73df27859U, 0xbd56b00f3d059a8fU,
  0x3e6066c3bdfcab8cU, 0x3e4a7e343e2b9ff6U, 0x3e1e219a3df3c4c4U, 0x3e408e91bde46143U,
  0x3e8a59e13e06869aU, 0xbe1383fcbe69e0ddU, 0x3d3ff2cf3e5d51d9U, 0xbd001c7f3e00ba5aU,
  0x3e2897d63e268db8U, 0x3e10419abddca633U, 0x3da883cf3e235903U, 0x3e3b2e8e3d17cdbfU,
  0x3d8355db3c28d408U, 0x3e0b8141be4c9407U, 0x3db960f2be1795e4U, 0x3defc9cc3e47d706U,
  0x3e5a5f93be8e6fddU, 0xbca67b43bdd501a3U, 0xbc92f15d3d19bc0eU, 0x3ad718a6bea6a548U,
  0xbd3b0bc9bce0bf13U, 0xbec3fa86beb66f5bU, 0xbd6b12ffbe029f19U, 0xbd15cf38bd658282U,
  0xbd1f216c3cd07e0eU, 0x3d97031cbe950e9aU, 0x3c9135bcbe326666U, 0xbde3e22ebe0ac4baU,
  0x3e00c733bde6afbeU, 0x3d97bcfcbe9233b7U, 0xbdff5819be21307cU, 0x3cdadd3ebca3ee29U,
  0xbcd3bf08bdf4a94fU, 0xbe84fcb0beaa13bdU, 0xbe97795cbe205bccU, 0xbe0cb2d63c9775d2U,
  0xbe23a3b8be6aa4caU, 0x3c8684d5bc0f2437U, 0xbd97e8d3be961e7bU, 0xbbec8f53bd6baa60U,
  0xbe08bfd3be15726cU, 0xbd580a21bd89bab9U, 0xbe57da6ebdb2422eU, 0xbe82dcb0be9dfd22U,
  0xbe2720c4be4d7105U, 0xbdef18dfbce21e09U, 0xbea9e4b9bdb33034U, 0xbdb0354ebe65786eU,
  0x3bdd9405be07d673U, 0xbdda0c8c3e766458U, 0xbd6ac7323e453a16U, 0xbc89faf8bebe9cf6U,
  0x3c9001a9be128d2dU, 0xbe24a4543d5c393cU, 0x3ea64385bd4656f6U, 0x3cd49d44bd3c07d6U,
  0xbdc97467bcd716dcU, 0xbd0fd318bdbfe0d5U, 0xbd5cf4ecbe38ef90U, 0xbcc26af53e2610b4U,
  0x3e4b1a4cbd7f4d7bU, 0xbc943885be2035f3U, 0xbe6baa093e0b7c5fU, 0x3d08a41c3daadeaeU,
  0xbd74a8433d05da68U, 0xbe22f3a4bdca4cfcU, 0xbe56a52abe28f04dU, 0xbeaa6eadbd811db7U,
  0xbdeff05dbe319468U, 0xbd237ce43dc2fea4U, 0x3ddde43dbc74cae1U, 0x3cbb93c63e0b347fU,
  0xbdecef5cbe1646c0U, 0xbe0da9fd3cd9f710U, 0xbe04e5ebbe2ec28eU, 0xbe2d236fbe1a32e3U,
  0xbe42777ebe2da2abU, 0xbe5f746abe18b59bU, 0xbe5b84bc3e253da0U, 0xbd890ca2bd7f470bU,
  0xbe331f743cf352deU, 0x3d583561beb7b3d9U, 0xbd045caaba883dbaU, 0x3dd7c2dd3dfc4edaU,
  0x3d8a781a3dce5ca2U, 0x3d5595d43d9f3a71U, 0xbe6c017c3dcd94bbU, 0xbda0a8703da8ae97U,
  0x3e2a96233cf11a74U, 0xbd06385f3dfe3973U, 0x3d93b4fc3b466a4aU, 0x3c84658bbe4eac7dU,
  0x3e97afb83cca91aaU, 0x3c81f1943e37b9f4U, 0xbe19a3133d3e08e9U, 0xbd74103bbc85e16eU,
  0xbe067f94bdb2fb8dU, 0xbe61d501be8ae0e5U, 0xbe4b3de4be0b5711U, 0xbe8b22ecbe35c7f4U,
  0xbddb25cbbe5cf67fU, 0xbd39785a3cf20492U, 0xbe2be17dbc23356bU, 0xbe4633d33d355464U,
  0xbe210ba8be4edfdcU, 0xbe507e053b36c6f3U, 0xbdcd9f5fbe9713a5U, 0xbe800089beac524cU,
  0x3cac7f50bd9e50e8U, 0xbe2cdc9dbe033916U, 0xbe70cba83d5319e9U, 0xbd62553ebe0ae881U,
  0x3cab062e3ddf7713U, 0xbdbb7f61be639996U, 0xbc50303ebdb1d80bU, 0xbc8ad6fd3c1a546fU,
  0x3dbdcc60bda757ffU, 0xbcbf07d53b4e0e89U, 0xbde975b6bcf08cb7U, 0xbd30c6403dde98a3U,
  0x3d8a446ebc444405U, 0xbda84eb33da83de1U, 0xbdfb874fbd6bd7c0U, 0xbdd4e4a9be3d8ceaU,
  0xbd5ea1793b820b3aU, 0xbcc4a3fbbdf9099dU, 0x3cea3c70be02b332U, 0xbe0c2c71bb89d4c8U,
  0x3dfa65c03dc0ced8U, 0x3d92f567bda26436U, 0x3d8c1cb23e0f358dU, 0x3d8769a2bcfde3afU,
  0xbc4bac0a3dbc03faU, 0x3d39543a3dfc651bU, 0x3e2a2f0b3da97acaU, 0xbd724d313c32cf1cU,
  0x3da96d9b3de3bd6dU, 0x3dc626d8bd8af815U, 0x3d862ecbbbdb11c3U, 0x3d882b623b791cbeU,
  0x3dc089843d1a36c7U, 0x3ca921aa3c9dcf5bU, 0xbe3558d5be05d423U, 0x3e393ec83ce05eddU,
  0xbefdd5bc3c773c8eU, 0xbeb0156d3e323d6bU, 0xbe472384be0ffd32U, 0xbeba26babe933b67U,
  0xbe3a74a6be5c0288U, 0x3df50bcbbce6e373U, 0xbdd5b3b6be235a30U, 0xbe94d8b0bc95af1aU,
  0xbe923676bed15d3eU, 0xbeef0dd9be63dcd1U, 0xbe9e4bacbe1a74c9U, 0xbe9a9359bda552c3U,
  0xbe592c6fbea1406bU, 0xbe9da6cf3e63046cU, 0xbe1a88f43c01fcfbU, 0xbefb4497be2b8ba0U,
  0xbe70c9f0be83c994U, 0xbc6b3eeb3e77dec0U, 0x3d475c7e3e1b71b8U, 0xbe01fedebecb45cdU,
  0xbe03aece3c276d00U, 0xbe82aa6bbed3655cU, 0x3dabb1f23d90530dU, 0xbe41f1cbbddcf6a2U,
  0xbe524a92be166139U, 0xbe33386dbdc7326aU, 0xbdf7892dbe458c4aU, 0xbc00810f3d8dcc3aU,
  0x3e374599be051706U, 0xbe094439beaf4fd1U, 0xbea24201be5edf12U, 0xbe5eb8fc3e1f780dU,
  0xbcee37053d88d611U, 0x3de764df3e5bde52U, 0x3d61d3063e89465bU, 0x3e47c48bbea1f534U,
  0xbca8bc193da4a521U, 0xbea0e7633d2763ebU, 0x3e7e7ae23d2c5e58U, 0xbe146293bd209873U,
  0x3e4450d63e201a5fU, 0x3e1927bb3c57c5e6U, 0xbdad52c3be224166U, 0xbd3cae873db74342U,
  0x3ea66342bd70054eU, 0x3da53fc5be90d90eU, 0xbed4d329bdc6f278U, 0x3dd5cef0bd8b8c5cU,
  0xbe0b02b63e6d5c47U, 0x3d0cf8bcbcaebce1U, 0x3c9647aabea96464U, 0x3ca1d6043e6f415dU,
  0x3db214b33d002e9cU, 0x3e63c4413dffc64fU, 0xbd937a593d481d39U, 0xbdea0e4fbdb974c1U,
  0x3dbc8d96bd94374dU, 0xbe06f7c73d27f0f7U, 0x3da7fa663becf068U, 0x3d314eb3be5d47ccU,
  0xbddc449dbd4d1b9fU, 0xbdc7d0483e8a2478U, 0x3e3c93ccbcc40c32U, 0x3cfea281bab59d14U,
  0xbd8b89693debeb20U, 0xbe33f11a3eeb3144U, 0xbe32ff87be40cde5U, 0xbddbc8443e96aa16U,
  0xbde8ce203c65a8f7U, 0x3e16363a3d9037dbU, 0x3d9fbf43be691f92U, 0x3d0b8a4bbe67a756U,
  0xbdd31449bca27840U, 0xbded8b2fbd4a3fdcU, 0xbd8ac7933dab6cadU, 0xbcfb9cd63d8f714dU,
  0xbec1593a3b02ebb1U, 0x3d5aed463e8b2cb6U, 0x3db869863e065e17U, 0xbe61c58cbdc5c7f8U,
  0xbe3f6b703ce11e5fU, 0xbdf71ce53e9845e1U, 0xbdafee45be4dd7e0U, 0xbd44c0cabd83d8d3U,
  0xbd887747be45fefeU, 0x3d2e53fabd12a77aU, 0x3d88434fbddb295dU, 0xbdad1a14be598be9U,
  0xbe407766bd15dfd2U, 0xbe14b090be365fe9U, 0xbe037ecfbe14ac76U, 0xbc435acd3da779f1U,
  0xbef6e431be37b865U, 0xbe0e9d3e3da9d853U, 0xbdc60e763e1e6a4cU, 0xbdd79fe6bd969d5bU,
  0x3e22c0163c78d707U, 0x3c9c5651bc74b96aU, 0x3d413779be0c0335U, 0x3db3409ebd0c3151U,
  0x3db5de4dbcef6bc9U, 0xbd6d2b67bddbe3feU, 0xbe3b80363dfb9263U, 0x3d22422a3e00e75cU,
  0xbced943c3da3138eU, 0x3cb48c4cbc8c5ce3U, 0x3e249cc5bad9af56U, 0x3de78546bc8bce0fU,
  0xbe3182f13c924dedU, 0x3d86ca8cbc9331b5U, 0xbbff715fbe1bffc7U, 0x3e182cb03cd44405U,
  0x3e3a842d3ce6d48cU, 0x3c201af43dc95e10U, 0xbc7b04c1be599ddfU, 0x3d48a5383d8e1087U,
  0xbcb12e693e0f2668U, 0x3e13a9cf3c27b526U, 0xbe8ce5443dc93cf1U, 0xbd9761403d7e100fU,
  0x3bbfeb563c80722aU, 0xbb53be55bd326346U, 0x3db7d29d3e31c3b6U, 0x3dcaa4c83d85b7a3U,
  0xbe9a68d43d87f946U, 0x3d6b7c0b3cccb286U, 0x3e400c44bd420336U, 0x3df4efdc3e1a2815U,
  0x3e4041b13cd7012cU, 0xbd4f9ade3d6ddc75U, 0x3d054893be47b9edU, 0xbd45cf53bbdbf17aU,
  0xbd252522bb00a065U, 0x3e0e7d15bdcf647aU, 0xbdfcf7cc3da92071U, 0x3cc4dc2dbdeda3b8U,
  0xbd1c153a3c887495U, 0x3c80b511bdb4131bU, 0x3daa35ea3e43f36bU, 0x3d8140223db10c63U,
  0xbed5d15abcd17217U, 0x3d3390133e5733dbU, 0x3e676231bd7fa1c2U, 0xbd8a77013d1acaa6U,
  0x3e083b5fbc0c9ff0U, 0x3d57732dbe0a9f38U, 0xbb8244293c4d098dU, 0x3b9e0b06bd7955e8U,
  0xbc9139193cfb7e1bU, 0xbe114a28bcd46011U, 0xbdcba457be114762U, 0xbaba99ccbd99c9c7U,
  0x3c9cba4d3cc0502eU, 0x3dd35be4bd6fb6f9U, 0xbc92679f3d74d358U, 0xbc0487e5be656044U,
  0xbcbad9503e10a594U, 0x3dc4a10dbcbf8dcfU, 0xbcde5e62be2ef2a5U, 0x3e045773bc98baaaU,
  0x3d05c21bbe92c99fU, 0xbcdc78ecbe74f21cU, 0xbe209f55bdbd265eU, 0xbe20849ebd89c81aU,
  0x3bc8ad4bbd199163U, 0xbe358734be21b944U, 0xbdd74907bde71ea6U, 0xbd810edebe21572cU,
  0xbe3407cabcccb27cU, 0xbd914f6ebd0dc20cU, 0xbdbe26c0bce14e35U, 0x3d2f1ed0be749cccU,
  0xbe6c74b1bdee7aa9U, 0xbd10be91be8bd55eU, 0x3dc1c1ebbdbd4b39U, 0xbcfed3a4bd1e611cU,
  0xbe044a25be8f156aU, 0xbe1f32bcbe7a0872U, 0xbe53af99be0aa8f3U, 0xbdc3d9f5bd94f3e1U,
  0xbe771737be46fffbU, 0xbda364b4be5fd86fU, 0xbe1f0b3cbe6fcb7cU, 0xbdceabfcbe95eb6cU,
  0xbe488acebe337139U, 0xbe3f8c58be82961eU, 0xbe642f90bda567f8U, 0xbe377194be90661eU,
  0xbde318bbbe904319U, 0xbdb6711cbd5b07ecU, 0xbd874d53be4c98edU, 0xbc0737a7be2611d0U,
  0x3d48063cbed0bfd1U, 0xbded23f1bdf6b719U, 0xbe25b0673d354982U, 0xbdc9447ebea88ddbU,
  0xbe77b932bdcf9338U, 0xbeacbf2cbe6af790U, 0x3d2f5782be58ee9bU, 0xbdeb50a6bdc638ebU,
  0xbe6eaceebd4b6c88U, 0x3d6a5792beb3c7dcU, 0xbe124553be3ad86dU, 0xbdb58d70be9255d1U,
  0xbe2351323bfb62ebU, 0xbca89ae4becbc84eU, 0xbe27f70bbe166ed3U, 0xbcd22080be39d552U,
  0xbe158916bde31a2aU, 0xbbbfea5dbe44064dU, 0xbe158850be0ca2c7U, 0xbd767955be0d6625U,
  0xbe1b1104bdc6bd83U, 0xbe20b94dbd8dfd7fU, 0xbaae8c96bcc0a285U, 0xbe00084b3cb4175bU,
  0xbe26bfcdbdc05858U, 0xbe6e5117bcc07334U, 0xbe1a72c4be022676U, 0xbe087b6abe79f199U,
  0xbe5231a0bd1f214eU, 0xbe0b4b3cbe3198a5U, 0xbdb104e6be41ffa6U, 0xbe1018fcbdcb2c42U,
  0xbe0d1a953d261f49U, 0xbe17b7e9beb1033aU, 0xbdb8206fbdd92ddfU, 0xbe26d2613e5dbf91U,
  0xbc3666603ce9dc5bU, 0x3de2d2523e06b7faU, 0xbd5ff6a5be113b74U, 0x3a1822e2bce3ea2dU,
  0xbe3947c2bdfaf8f1U, 0xbd96cfcdbc9f0639U, 0xbc5769983d8b7adfU, 0xbd4deda1be90cbccU,
  0x3dc10ae2bae72f89U, 0xbdcebfb03deb9157U, 0x3dac1915bde34ba4U, 0xbdeed07cbcdc5f24U,
  0x3d2240233c53c14dU, 0xbe3e81d5bde1e5feU, 0xbe53a3f73d7d3f6eU, 0xbdf23ff7bd203f60U,
  0x3e509c63bd9d25a9U, 0x3e321a9c3e09c954U, 0xbd8a9d25bddfd8aeU, 0x3e8776c33dc9aaccU,
  0xbc0598b4bd80ec56U, 0xbe2dd5bb3e2be767U, 0x3da70f193d2bab14U, 0xbde3ffa0be3d218bU,
  0x3e6b6123bd28930bU, 0xbdc128b93e1572abU, 0x3b5b5a833df405eaU, 0xbd6cfc69bda91022U,
  0x3d77d4363ddfe385U, 0xbd8afae03b06ad91U, 0x3c9ea2cb3e13b51bU, 0x3d198c6d3d4df1f2U,
  0x3d68e5c6bd95a57cU, 0x3e3f50163e5409c9U, 0x3e3536d7bd8f6b1dU, 0x3e5c73d63c0ef8f5U,
  0x3e24a8fc3d4e8d18U, 0x3d36aa363e0340deU, 0x3de01ba53d875e1cU, 0x3d2b2e0ebe01d055U,
  0x3ea8f3df3c34736eU, 0xbc89ec5f3e713668U, 0xbc8438373d495afeU, 0x3defa377bdb09ba4U,
  0xbe56e1e73e30f406U, 0x3d88bf8fbdc73520U, 0xbce7d8dd3dd88d5dU, 0x3c10977a3e1bb9b6U,
  0x3e1652b1bc970afdU, 0x3decc34a3e2c2b70U, 0x3e0ef673bcd28dcbU, 0xbe1b150fbdc4eeddU,
  0x3df60ed83d2badfbU, 0x3d7962183e068e5bU, 0x3d84a0573d910574U, 0xbc244c5bbdc14a7eU,
  0x3e71983b3c9fe9d4U, 0x3b82b3dc3e1a6205U, 0xbdb4e2e73dfc9279U, 0x3c80de2c3d636a23U,
  0x3df89c7fbcde48c9U, 0x3da29a99bead8ec8U, 0x3d738763be505f93U, 0x3dee57b7be173dafU,
  0x3db9bac83d383de0U, 0xbe163437be2afd69U, 0xbec7883b3d1ae857U, 0xbd0fb8773c4c98daU,
  0xbd32df383d5a809bU, 0x3e1cc553bbfd30b5U, 0x3d5fff823d14a6d1U, 0x3c05d6443ad9458eU,
  0xbc8b2b383d8e6449U, 0x3d73b1fcbe5366bfU, 0x3a5fe992bef8bea1U, 0x3b87396e3d7024f1U,
  0x3dd591b2bdcd107cU, 0xbd0a6689be4d2cb3U, 0x3d5870693d254116U, 0xbcb094d2bdff7125U,
  0xbd4c5ed73cb7c71fU, 0xbe68d445bda779f1U, 0xbe5f82853d164a41U, 0x3d4262d1bc8cd9f6U,
  0xb98d79c53e33325dU, 0x3e209c17bda9c561U, 0x3da05cd5bdc754a2U, 0x3c97a1a0bd3a7d7bU,
  0x3e75e6c93cc759dbU, 0xbd181967be92cfb1U, 0x3d0011b8bf1a6992U, 0x3da524c2bcadf4d2U,
  0x3d5d1dcbbde77f96U, 0xbcc80695be4f4a4aU, 0x3d76a60fbdb13687U, 0x3d8929b3be2c540aU,
  0xbcbafa10bdbe38c5U, 0xbe05e1d1bc355c81U, 0xbe55fd5b3d87902bU, 0x3c840e683e1e4141U,
  0x3ca44a153d465f0eU, 0x3de644eabda858f5U, 0xbd0a415bbd53fc1eU, 0xbd735e263c21bfbdU,
  0x3d9997e53c093812U, 0xbd9548acbe4748edU, 0x3dfb5051beaece08U, 0x3e3b2cd5bd914caeU,
  0x3cc2222ebda4791cU, 0x3c47fa9b3c777b2fU, 0x3cc68522bd5e53a8U, 0x3d41ed33be50601aU,
  0x3d8bd6a9bd942d54U, 0xbd997851bdcf610fU, 0xbe73f6923d17fb8dU, 0x3e44b111bc88289bU,
  0xbca06b4d3c0b755dU, 0x3c880e9abcabfc9fU, 0x3dd30b8ebc91e2e9U, 0xbd6e90a03e1d1218U,
  0x3d957c3f3ca0b7caU, 0x3cb63895be0ea0e0U, 0x3dfe5d1cbe338be7U, 0x3da5e52fbd2eec78U,
  0x3ca0f8b5bd54d08eU, 0x3d80546c3dc0b93fU, 0x3d227e42bc0c049cU, 0x3c69d1ce3d7f6ef8U,
  0xbd1734ef3c944075U, 0x3d58a38b3b12a90eU, 0xbdcf70d6bcb5adb5U, 0x3e389e43be2c5e10U,
  0xbdc21f693d3d4fc6U, 0xbd525008bdbc87d0U, 0xbc0821ec3d728d9aU, 0x3d9475e8bd3ec7e2U,
  0x3d67bd57bd3b715bU, 0xbd8e3f18bd8a3d1cU, 0x3d14af2fbda180afU, 0xbdaf77e73d66d2bdU,
  0x3ae4e11e3cf613a4U, 0x3d9daa7f3dbee7bbU, 0x3cd40a6cbae49172U, 0xbca51e3a3dc9f6f4U,
  0x3df35c663cfa0f76U, 0xbc2f27cf3d9ca60cU, 0x3cdcc1dd3be86ae1U, 0x3e22d7c9bdb599c0U,
  0x3d678982bdca46bbU, 0xbd763f3a3da7f567U, 0xbd521398bc056e3cU, 0xba8cc5b33db41befU,
  0x3e97c5a03db8f7b8U, 0xbaf5061d3d161b03U, 0x3dd4f388bce3a6ceU, 0xbc4d8f0ebd429a1aU,
  0x3a9e22c8be105325U, 0x3d039ffb3a62b136U, 0x3d2a7706bd857674U, 0xbaedec7c3e224160U,
  0xbd406b423d0cac96U, 0x3d364467be10b7a3U, 0xbdd90398bd5e8316U, 0x3dba2ea3be52d1e7U,
  0xbda1ca733cead0b9U, 0xbbaec7eebe3ded57U, 0x3ca7dacb3e5bbd32U, 0x3db4017dbd0c9b36U,
  0xbd9a229dbd608fe4U, 0x3de7479abe4895b1U, 0x3e23dc35be930fe1U, 0xbd46fe653d9cb833U,
  0xbd43133abce13d7fU, 0x3a6e17473e56716dU, 0x3cce53f43e9fb866U, 0xbcd92b393dbf0757U,
  0xbe032e2a3dc9b169U, 0x3e7aef5c3daab08bU, 0x3df2faecbdfec4c3U, 0x3e262fafbed4bf75U,
  0xbc9ad276bdb86392U, 0x3c0aca7ebd9d3920U, 0xbd9c18623d862872U, 0xbcd918af3c81187aU,
  0x3eab6945bd02843fU, 0x3d83badf3e6a3741U, 0xbdd530083ce51e9eU, 0xbd3ec309bba3db05U,
  0xbd0fb5abbdcbdca4U, 0xbe0580ec3e27fc09U, 0xbd4f003d3ebf4de7U, 0x3da3b056bddd94eaU,
  0xbd377309be1e4fd7U, 0xbb03cf863cfd4548U, 0x3eadc27cbdbae801U, 0xbcb7ce11becedbddU,
  0x3dd315b83dbd7649U, 0xbbf1ce9938a4f22cU, 0xbdbe8be0be00bdf5U, 0xbe309be03e3bc2b0U,
  0x3ea52164bdb59cf8U, 0xbe02c88f3dab97d1U, 0xbe22ca743deaabb5U, 0x3d12244cbdaf9d9eU,
  0x3d68663f3e08ac11U, 0xbd8c5173beb7cf6cU, 0xbc30444b3bdc8d18U, 0x3d799001bdd579bcU,
  0x3d7639bbbd204f2fU, 0xbd1004fa3dbef879U, 0xbe19868abcb1a8d5U, 0x3dc0e6c23da544e2U,
  0x3e6f6d883e2ce22fU, 0x3e41a5023e540767U, 0xbd8774e9bc2ae710U, 0xbdf33a6cbe1feba4U,
  0x3e8038d6bcf90455U, 0xbdc49b2c3caf0636U, 0xbc5ef57dbdfad479U, 0x3e1e9977be48cbeeU,
  0x3d70f9203d8060e8U, 0x3bc30550bda5bdecU, 0x3d11ce3d3e92b76dU, 0xbc5fcb5cbd955b06U,
  0x3d5b4356bdf0f260U, 0xbddafa4d3e3481d2U, 0xbad6c6b13d196787U, 0x3d39dcc33e02582aU,
  0x3e2341b33e0be890U, 0x3e21cea93e1b6898U, 0xbd3e636cbd936ee2U, 0x3b9ddf69bb79b81eU,
  0x3eafe6f43bea080eU, 0xbd5ab6b5bda477e0U, 0x3d684d12be9421d2U, 0x3e73a79abdc7e6bcU,
  0x3c61b5383da9f553U, 0x3d24bae0bc5b9d01U, 0x3df4d79d3cfafd8aU, 0xbd81a1ee3e030c1bU,
  0x3dbe305f3dbad571U, 0xbdde7f323d97cda5U, 0xbcb910eb3e495efcU, 0xbd5fda0c3c4f1080U,
  0x3dca82323c8615ebU, 0x3b77e91b3d24766fU, 0x3d862eccbccf1d97U, 0x3d56beaa3dd34effU,
  0x3d65df1fba067a53U, 0x3c27e15dbd5f6bdbU, 0x3e6aef18bedfcbedU, 0x3d48697b3dc79d48U,
  0x3a440f9ebe01a0d1U, 0xbe07258b3e0283bcU, 0xbdd03b4ebe635f40U, 0x3bdaadc0bd9cb5c9U,
  0xbc8471e83cef2503U, 0xbd84b291be202d8bU, 0xbec3b1303d97c4fdU, 0x3e4fd657be08bc48U,
  0x3c928aaa3adeb2ebU, 0xbdac697dbdf930d9U, 0x3bf542d03e15522eU, 0x3d49a574bca30d5bU,
  0x3cce7950bd93006bU, 0x3d81aef3be2a1399U, 0x3ea2203abea1755fU, 0xbde5aaa43e0f7c38U,
  0xbceea880bc0a3d12U, 0xbdc8a2a5be24da81U, 0xbe1808b23ccffa56U, 0x3b58fa023de746c7U,
  0x3da0a315bc91f512U, 0x3dcfd31ebdc3e69aU, 0xbebd8e2c3d72b4aaU, 0x3e631d45bea842bcU,
  0x3e1018423d81831aU, 0x3d151bd0bd8ab002U, 0x3bd235163d985651U, 0xbe0456b2bc8c0d38U,
  0x3e1cda3c3d0a7cacU, 0xbda611863d35bbe7U, 0x3e0607edbe96c18bU, 0xbc742b8dbb720afeU,
  0x3d5527c63d732ddfU, 0x3cca9ce03d993202U, 0xbdfe3d623e0dc1c7U, 0xbd85ce94bbaa6107U,
  0x3dfcbed1bdca83d5U, 0x3c3a9a353d8c5683U, 0xbd58ccbd3d805bcfU, 0x3d0d3283bd72de67U,
  0x3d65e3153b773060U, 0xbdfa83b6bd295372U, 0xbd909343bd0a79abU, 0xbc81bc09bd0209caU,
  0x3db16676bca62db4U, 0xbd8859a93c8a4548U, 0xbcbf8b6cbe1dd359U, 0x3d935e81bd98d5a1U,
  0xbe4a2d83bcbf601dU, 0xbcead7743e091a20U, 0x3dd24c10bac26c24U, 0xbd9d3e4d3daf33c7U,
  0x3d250ff33de2e46bU, 0x3dd3c864bdaf7c33U, 0x3d05b5763da947a5U, 0xbd252a63be4689c1U,
  0xbd1572f2bd95485cU, 0xbd1ead8dbe3027e5U, 0xbd1d9e353dafd7b7U, 0x3cabe4b83d499f0dU,
  0x3e0dd367bbe8276dU, 0xbd8b142c3cbd7663U, 0x3e16de16be455ad1U, 0xbe6ee1d03dadafd7U,
  0xbe040fa43c8bad8fU, 0xbd33b4f33e197270U, 0xbd3e66e93e70d813U, 0x3ccf8bf13dfbf4bcU,
  0xbd862b473dda9a0eU, 0x3e2dab3ebd5684c5U, 0x3c02ffb8bd8d680aU, 0xbba480cabeb86e78U,
  0x3cbf7714bc8cec5bU, 0xbdebb59c3bbd6ca4U, 0x3c158b7f3e183b98U, 0xbd6b452e3df7ccf5U,
  0x3e8a7aa0bd3ec744U, 0xbc8591b03dfec174U, 0x3dbe3782be1c5b43U, 0xbdf620fc3de3a139U,
  0xbe502ae53d50e3bfU, 0x3ddfae593d8e652aU, 0xbc1f2cfc3dbde3b1U, 0x3bbacd4d3e0ae588U,
  0x3d4ec72a3cce7a64U, 0x3e65d3793de43486U, 0xbcc209ad3b910accU, 0x3ca3a70bbe709772U,
  0x3e1a601f3dbbf0f9U, 0x3de3bb1a3da9ae9bU, 0xbd8c25603d63cca2U, 0x3d6e3d223d97ca40U,
  0x3e6ad2373d2b6a5fU, 0x3ce24ce23de3858bU, 0x3e041e8ebc83f566U, 0x3d1bb7603df4e5b5U,
  0x3e4dfa7f3d008294U, 0x3e34bce1be4fc647U, 0x3d6a4dfcbe551994U, 0x3dd91b353da61566U,
  0x3df2367c3df405b6U, 0x3b925ea6bbc877b9U, 0xbe9a55d63e194b7bU, 0x3e66eb633db32b09U,
  0x3d3771cf3adf72a2U, 0x3e11bd2d3b23b339U, 0x3e53cc6b3e70471cU, 0x3d382997bc092f70U,
  0xbe6367cd3cabd760U, 0x3da9ff483d9e96b3U, 0x3e9f540c3cac598dU, 0x3b4e18d83dd7be11U,
  0x3e108f61bd56c758U, 0xbd69de77be0aea5aU, 0xbdfc6535be6251cdU, 0x3d33353c3d82cc35U,
  0xbde8c2073d5dd458U, 0x3ce59d02be13c076U, 0xbe540458be429d87U, 0x3b83b27fbe90adddU,
  0xbe5a4745bd8f85c9U, 0x3d70a67abd9d1171U, 0x3d6671243e3124eaU, 0x3cce3479be3d99b2U,
  0xbe314f98bd7285b0U, 0x3b897321bc0f2277U, 0x3dc275493c145b3bU, 0xbcade529bd6563d4U,
  0xbd4758c83ce51b72U, 0xbe42386bbe3a7cafU, 0xbd834b2ebe1ccdbfU, 0xbe45bf2b3db5ceffU,
  0xbd880a66bd191779U, 0x3d6d8c3e3d90f30cU, 0xbdaf15bcbd545c4dU, 0xbca9e67f3e82105dU,
  0xbdecca78be335022U, 0xbe05fdbfbc06c197U, 0xbe03fa123ba17d23U, 0xbcb03c55bd9efa5eU,
  0xbe24d1c4be238c3eU, 0xbd75d548bd3e613dU, 0xbd2c750c3d257636U, 0xbd5d0e52be1732b7U,
  0x3dcdf8c8bdfa65efU, 0x3dcddd13be92e760U, 0x3e0b9e21be4ed16cU, 0x3cfc550ebc187c35U,
  0x3d530a2a3d9dbc39U, 0xbd11c82fbd99d218U, 0xbe3c4b663df195c3U, 0xbd5746f23e0d77c8U,
  0x3dc751b33dfff7b3U, 0x3e2b0ab8bdae7102U, 0x3e0bd4153d9bd97cU, 0x3e01353ebddcb9ebU,
  0xbe1ca6e03e0b29b3U, 0x3e2970ccbe29380cU, 0x3e00e044be9c805eU, 0x3dcc81833d14c772U,
  0x3dc7ad62be370a43U, 0x3ca64156be1e0f0bU, 0x3d7e1101bd0832d8U, 0xbdb17f443d1ae3e0U,
  0xbe170fb23d0775ceU, 0xbcede365bdc9708aU, 0xbccc2027be1e9ad5U, 0xba39ac5b3b356bdaU,
  0xbe03e92a3d5d84beU, 0x3e008dccbe0991b3U, 0xbd0b4df43db67c59U, 0xbd4ac7f3be8f9576U,
  0xbc765b63bd258b16U, 0x3d495cccbe5f0c6bU, 0xbd192e92be6ce461U, 0x3d53fcd5bcb199aeU,
  0x3ceb40f7ba7f7aaeU, 0x3cbac5abbc8305beU, 0xbd919ca0bd74eceeU, 0xbe0499f3bda4f551U,
  0x3d4a2fafbdada6f8U, 0x3cc2f62b3c88dd6dU, 0xbd9138693cf6a3a9U, 0xbd0bf2113e80aa63U,
  0x3d3981acbcf309b7U, 0xbdee103eba412fe3U, 0xbcac5ccabd9012bfU, 0xbbc0813cbad3e5b6U,
  0xbe050826bd66e492U, 0xbd40322bbe1ab8c0U, 0xbdec93b1bdd39705U, 0x3d084cddbde00df6U,
  0x3e359119bbbf3fd7U, 0x3e08c62cbe3f6610U, 0x3d2b3388bdda5c54U, 0x3d89645cbec8fcbaU,
  0xbc8144473dbf0ef6U, 0xbeb94b70bdd6eae4U, 0xbde61d573cef7517U, 0xbcb06ba83c095f28U,
  0x3d8c0c7f3e295cdbU, 0x3e660e08bdd9652aU, 0x3e18fcbb3c24ec98U, 0x3e16aefabdba640fU,
  0x3e4c189abae338f2U, 0x3d90a30dbe83c430U, 0x3d16a0dfbdc7bdfbU, 0x3e24a742bc96349cU,
  0x3d571942beac9c39U, 0xbde2d460be8d9eddU, 0xbd51c2b9bd97cf0cU, 0xbd8f15e4be3bf4dbU,
  0xbdf72d28be0546d7U, 0xbe3b3382be4f8d5dU, 0xbc98deedbe131668U, 0x3daa586f3dcf7a26U,
  0xbe24bfc3bc6693cbU, 0x3da1d226be2f4868U, 0xbc991bdcbcd97cccU, 0xbd0b1c7abea0ddb3U,
  0xbe2af026bc3ffbd5U, 0xbd20f7c4beb91110U, 0xbde501a4bd273498U, 0x3d91abe1be058805U,
  0x3ca4602d3c69e10dU, 0x3b8957adbdf5d055U, 0xbc8cf69ebe3eb462U, 0xbcd8074cbd266a35U,
  0xbcd3335fbe053848U, 0xbd07a5583df75727U, 0xbdb45b6ebc6a7a3bU, 0x3e1156403e8153a2U,
  0x3d0ddd8dbd426be6U, 0x3d665e663d0445e8U, 0xbce3969abe1052d7U, 0xbd3a01183bbe9dd2U,
  0xbea2053ebd74e839U, 0xbd0ad9bbbc84a3e8U, 0x3ad7403d3d7e59b3U, 0xbd62217dbd03340bU,
  0x3d42a478bd23ea59U, 0xbcf406bdbd830a6eU, 0x3d98c9f63d4ef75fU, 0xbd761b153e63d449U,
  0xbd4d99f23e332adfU, 0x3dfc5bebbd432dc2U, 0xbd635bf4baaa3c34U, 0xbcb34c54be930c6dU,
  0xbe0fa4acbce878e2U, 0xbb2fa0a8b89b8f60U, 0x3dac20ec3e2e656fU, 0x3d9ea23a3d0d3989U,
  0xbd3988c43cf2b0ceU, 0x3cc74a213e0ffb19U, 0x3e24872e3cfb6e2fU, 0xbd51698c3e42e147U,
  0xbd34b80d3e1009fcU, 0xbde9dac2be5c6ba4U, 0xbdf43bd7bd6ab517U, 0x3db7c8ca3d355156U,
  0x3d501b5ebc28d2d6U, 0x3e13e60d3dcfa43bU, 0xbe446e95be08d3d6U, 0x3c4ce2d1be09fbd2U,
  0x3de48614bc9757a1U, 0x3db643003e1146fcU, 0xbd096e6c3e083dedU, 0xbdae3951be65156cU,
  0x3ded9eedbbb27346U, 0x3d5fd1663e8f1b3bU, 0x3e4b76783e0dcb1fU, 0x3da95902bc92dc73U,
  0xbc8ffc103cb7a3e0U, 0xbdb8962abe88cf5eU, 0xbe4c18733d0e4c79U, 0xbdba4342bdde9938U,
  0xbdc4ed25be0731f2U, 0xbd2b979ebd653848U, 0xbd0239f8be1664bdU, 0xbd1565153cad84e1U,
  0xbdc7e24d3af36caaU, 0xb8d4eb3d3d02be9dU, 0xbe3541e7be05f74eU, 0xbe4bc429be18c23bU,
  0x3e979321be56a729U, 0xbdcdee96bca19b6aU, 0xbdee4f553d460de8U, 0xbcbc92f6be1c2598U,
  0x3d039d71bdb8a848U, 0xbdc9cb50bd6ad72aU, 0x3d88c339be4ee9cfU, 0x3cc3bbb8bdd530beU,
  0x3cfe3b5dbcefd641U, 0xbdc3b2d4be0dd3c8U, 0xbd9ef15e3d7720f5U, 0xbe8c7308bdc952bbU,
  0xbd9a3b1c3d832a8eU, 0x3d90023f3ba660d4U, 0x3d7e8571bad57371U, 0x3d93876cbd2cc782U,
  0xbe578494bcf2037dU, 0xbd0bfabdbe01eba6U, 0xbdab0363be3d10c5U, 0xbd451e6e3ce76996U,
  0x3d1ce468bd527417U, 0xbc8c6b79bca2a461U, 0x3dcfebd0bda5d002U, 0x3d21b4783e621aefU,
  0x3d5ff0413dcb2eb2U, 0x3ddbb2c8bd286c14U, 0xbe15080a3de964cbU, 0x3d2257e1be482628U,
  0xbe02e528bcc09b10U, 0xbcbf9805bded2724U, 0x3de95e923dea9fb6U, 0x3d77caf93d1ea0b1U,
  0xbe4f45593d9dd0ceU, 0x3dda4af5bd813df4U, 0x3e13ee55beb01faeU, 0xbc915d1b3e497e59U,
  0xba16860e3dfde25cU, 0x3a16489fbe132821U, 0xbdb1bb83be4c7334U, 0xbc24b1113e628753U,
  0x3c5f04773d388ad9U, 0x3e344340bc7b8068U, 0xbe5a5cb1bcb03d24U, 0x3e81c928be3545bfU,
  0xbcabc547bca505d2U, 0x3d5a5e74bd68e261U, 0xbd1c905a3dd22c69U, 0xbd91def3be18d029U,
  0xbe5a3a42bd3d4993U, 0x3d3924173e1c4620U, 0x3e2a35103bdaf960U, 0xbcb4f2093c6ed32cU,
  0x3e4f37983cda56c6U, 0xbd0228b4be5d2c13U, 0x3b3ed863bd796edeU, 0x3dd9ce88bde19162U,
  0x3d41ab52bcd1d572U, 0xbcfb17f93d57dd34U, 0xbe06b018bd57486fU, 0xbcc1a83f3c88df66U,
  0x3e428fdd3d28ac3fU, 0x3db658a53ab2bb76U, 0xbd5b1287bdcd6102U, 0xbcc2b700bdc47adfU,
  0x3daefab63c96a03eU, 0x3c6fe222bda8594bU, 0xbe26cfbdbe8e2e1aU, 0x3da69369be2c44a5U,
  0x3c9336a9bd7c6f6aU, 0xbd07caba3d308884U, 0x3dbc14cf3b94f43aU, 0x3d42975bbe053500U,
  0x3df700a03d804f71U, 0xbdb1adb8bdceee6aU, 0xbdc43bea3db908b2U, 0xbdcd6d613d146df2U,
  0xbd8d5d593d5c3d01U, 0xbd246bb9b928d9dcU, 0x3c014f53bac37c78U, 0x3bcf71f13da2d058U,
  0xbe48b7873c1b330cU, 0x3dc5ddf4be41e4f2U, 0x3de96d2dbecdd18dU, 0x3d42bfed3a71b957U,
  0x3c022594bd8a24ffU, 0x3d90112dbe2fb783U, 0x3dc30a4bbe740490U, 0x3d67f9f93de2bbd4U,
  0x3db759283d99f59dU, 0x3c1afe0abe648c46U, 0xbe84c6f63e836956U, 0x3cad76b4be069f02U,
  0x3d4b8e383d1a37f4U, 0x3dbc1505bdfdd255U, 0x3da0b4723e3e62b0U, 0x3deb77263e0bd885U,
  0xbe8306983dcae96fU, 0x3d81923fbda79cc2U, 0x3e37f30ebee4c9a8U, 0xbe0753973dd9f511U,
  0xbe080ce8be03e65fU, 0x3d9ffa7a3e87bfe3U, 0x3de7cdab3dc11cacU, 0xbe200c30bd931c06U,
  0xbd662db2bbca29fbU, 0xbe1be232be624006U, 0xbc1381aa3e08b567U, 0xbe85ac103d26c7c8U,
  0xbe3d565fbc8d67d6U, 0xbd8d1cb9bd6ee509U, 0xbd33bbc9bdf75a2dU, 0x3d2201ef3de9e1cbU,
  0xbdbaf01a3cf92ab1U, 0xbdb6d187be63ad28U, 0xbe10ce47be241464U, 0xbeb928763d54a434U,
  0x3e03cba53df0eba3U, 0x3e0aee263d18fc23U, 0x3dbd7fa83d6b74fcU, 0x3d82498e3d91c0a6U,
  0x3d06736f3d536e87U, 0x3e13b9193d0125fdU, 0x3e0fec7e3c9355b3U, 0xbdbba26fbcd8a22cU,
  0x3d7169523d3afec9U, 0x3cecfcca3d850d41U, 0x3c7a66d33dde4402U, 0x3d0b76483bf4fbdcU,
  0x3dd4d68f3dae69c7U, 0x3cccdbdb3cd2017aU, 0x3ba17e9b3c1f8fd6U, 0x3d5d0a60bcd04082U,
  0xbe01cd223df689b0U, 0x3b9fe9573e268b20U, 0x3e0fb8723e7ed68dU, 0x3db2aaf8bcab4a65U,
  0x3ca55d05bc89131dU, 0x3cc34a073d903931U, 0x3e97acba3da54d96U, 0xbe04a8b9bd99eb51U,
  0x3c0ab82e3d30d0dfU, 0x3d48dfc53d3f4c92U, 0x3ba95d46be0e9943U, 0x3d8c46873dbdb3e0U,
  0x3ee43cde3e272ec8U, 0x3d9385803d102c73U, 0xbe90b7b93c4a7de6U, 0x3dac32aebd652e8bU,
  0xbea416bcbe8dbc4eU, 0xbe68d1dd3e4c1982U, 0xbe510204bc8297bdU, 0xbe611cd0be659f5cU,
  0xbd453ff0be25b2b8U, 0xbde98041be79e8d4U, 0x3d41de17bd879e56U, 0xbe142a993cfbd5edU,
  0xbde6dd7fbe549480U, 0xbe83c6cebe923fe2U, 0xbe21aceebdb074c5U, 0xbe638d00bd2b4072U,
  0xbe258319be278037U, 0xbe59daec3d7aafa1U, 0xbe24ad0bbcffb088U, 0xbed4d450be86d9b0U,
  0xbd37c364be120eccU, 0x3b2e20093df77c02U, 0x3d76e0813e61493dU, 0xbc5dc0be3b39dcaeU,
  0xbd4e39eabd98a435U, 0x3d87865cbdf092a2U, 0x3e12d40abc211766U, 0x3dbd818ebdfa46c4U,
  0xbe0587483d69ae9aU, 0xbc218a7ebdb3ec57U, 0xbd0e3c713d67dbacU, 0xbd4281b83d0506aaU,
  0x3e03f30bbe0d482dU, 0xbdfe2e5e3df6544eU, 0xbe3d8f0c3e5c0976U, 0xbd3022ccbd3f2652U,
  0xbe2f7f1d3dad3c5fU, 0xbded46e53cb7a157U, 0xbdccdf4c3e62e7e7U, 0xbdb293cbbe15f2beU,
  0xbda8d64bbdf62531U, 0xbd163bec3e199111U, 0x3e810af2bde2bff4U, 0x3e42973cbe17fcfeU,
  0x3cf6db083d8d0494U, 0xbdc2996c3dca2c1aU, 0xbdf1ac46be4ae0d3U, 0xbc7241c83d3bd2b7U,
  0x3ebfa57bbd79750fU, 0xbcf9dd7abbac1394U, 0xbea5b43d3e8f0943U, 0x3d0c6518be2b372dU,
  0xbe843c6bbdfbac13U, 0xbe05982fbe5a2679U, 0xbe1fc723be186411U, 0xbe114a343d94aa04U,
  0xbc964bdabd2c93c4U, 0xbde76debbcbfab70U, 0xbe604315bc21ca2cU, 0xbeb3b10b3c5e6b29U,
  0xbc84a75ebe2212f4U, 0xbe139955bd814b4aU, 0xbe159e55be2986ecU, 0xbe384130be9032fcU,
  0xbd17cd60bdd3ab01U, 0xbe1176b9bd000695U, 0xbd839d54be537196U, 0xbe3ba35fbdff4806U,
  0xbe0e147b3d8b837dU, 0xbe0c7f71be1d92ceU, 0x3c026e7dbe53e927U, 0xbcaaa73a3e0c2a6eU,
  0xbdbf120dbd43af2eU, 0x3d54bf9d3c74000eU, 0xbc8c30b1bd9ce779U, 0xbe26e86dbdb45bfbU,
  0x3cb39edcbe1ee63aU, 0xbe5bf1b63d3d7b88U, 0xbc93e424bd8dcfc0U, 0xbd3f4247bdd45d60U,
  0xbe4922e2bc078709U, 0xbde8929d3ddec2e8U, 0xbdd4f5573d880dcaU, 0xbd4e9623bdee7a1cU,
  0xbd06e3893e32ab8bU, 0xbd3f007dbeb3317eU, 0xbde61198be40d060U, 0x3de043f43def2b6fU,
  0xbb9c88cfbcb89cfcU, 0x3d18ca9a3e60f803U, 0xbe1a2eb13ba151f3U, 0xbe0d78e6bd6a0bf8U,
  0x3dad47f0bd76a947U, 0xbc2737303e2f0826U, 0xbd1eda06bcad97b3U, 0x3d9ed657be93611aU,
  0xbcbc14703ce87605U, 0xbdae040e3dac31e2U, 0xbe1cf2fabc1af7a3U, 0x3b61b2593c294055U,
  0xbe1b67163db76b33U, 0x3cc4d5e73e47a2e5U, 0x3c4204cebc0301ddU, 0xbdbaa6823debdf60U,
  0x3dec7fa53d762e73U, 0x3e101fadbc9bcb63U, 0xbcc185fa3dbf149aU, 0xbd9038cdbe404678U,
  0xbc1f898dbd5b8da7U, 0xbd8ad77dbdc5da38U, 0xbdd1ef263e14fa73U, 0xbd2fdc6f3e587afbU,
  0x3dccb6573c94b7a8U, 0xbdac2db33dc5edb9U, 0x3e0ad3aabd363f3eU, 0xbd6d2e6fbc0ebf0cU,
  0xbd3c433a3d3107d1U, 0x3d925b0e3de76d0aU, 0x3dafcc223d5f1aaeU, 0xbdef05bb3dab55d5U,
  0xbd35c6c03dcd73a9U, 0x3dc4aeb5be066117U, 0xbdda49ac3dea93d4U, 0xbc91809dbdb381ffU,
  0xbbcfc1fdbd83875bU, 0xbd49ab02bcd218feU, 0xbd0547ef3e67206aU, 0x3de6ea0d3e793af3U,
  0x3de21b48bcf9dfa0U, 0xbd1681153d351bf8U, 0x3e513483bd8c823fU, 0xbac26d403e56413bU,
  0xbd7b7ced3d58ebb0U, 0xbd32b5d0bec52e0bU, 0xbc7fb1eabf01c834U, 0xbdbb2f9b3e21a0c1U,
  0x3dd5fb263da7e779U, 0x3d5029513acdccf9U, 0xbedfedb73d4d7e98U, 0xbe13740d3daff670U,
  0xbddfb253bd513fc6U, 0xbd698d7bba01295fU, 0x3d256f043d9b287aU, 0x3d65a8bebdb0575bU,
  0xbe85c9fb3d9fec73U, 0xbd9891e33d7ecc26U, 0x3a609b94be0ee48fU, 0x3c1a113abb11076cU,
  0xbd4741f63d44dcb1U, 0xbdc32236bea06abfU, 0xbdf7d18cbd903d0fU, 0x3b3e7e64bd0180f4U,
  0x3dd4babeb9dc8368U, 0x3da0e01cbbc0c592U, 0xbe5cd5d8bd3cba90U, 0x3e095ab9be33d09cU,
  0xbcc80808bb4fca08U, 0x3ce895383c8577e8U, 0x3db9fad33d39a6f5U, 0x3db037e6be109c36U,
  0xbcaffa053d58124fU, 0x3dd233883d2189a9U, 0xbc8d1197bdabd551U, 0xbd6462513d9a4ea5U,
  0x3e0f6446bd6b9c8fU, 0xbd34a530bea22a0cU, 0xbb0ef7dabd2ff4c8U, 0x3d3ce697bd9900caU,
  0x3c24c542bd849af0U, 0xbd804a533d0e6a27U, 0xbe70fdc63d29e58dU, 0x3d14feee3b629d78U,
  0x3d7a7a1bbd032815U, 0x3d8599cf3ca5fdf0U, 0x3d899dafbe013f82U, 0x3dbba699be35cf34U,
  0x3d574fdf3d18cdbdU, 0xbc1809e6bd0ab02cU, 0xbe3610b8bd0d4bb5U, 0xbd30d58e3c9e56d5U,
  0x3e6727f0bdb2d7eaU, 0xbc89b2cdbea4447cU, 0x3a932b1a3d3a627dU, 0x3d7ca21fbe931282U,
  0x3d517b9dbca327c7U, 0xbe9d9da1bded0dedU, 0xbdedb9a93ca72468U, 0xbe43806c3cd3e700U,
  0x3c9ff6a43d3c7507U, 0x3b547fc6bd7b59bfU, 0xbcf83631be472b70U, 0x3d8ea4e1bb1af472U,
  0xbcebeecabd4285caU, 0x3d025b6bbe6a1e89U, 0xbe5ae05ebe8bc145U, 0x3dc166cbbdaacb0aU,
  0x3d95016c3ddf5c35U, 0xbc60d24bbdba68ddU, 0x3ce470583e6e6670U, 0x3daf7c643df60030U,
  0x3d7b0b863dc4ac06U, 0x3e2106a83e1c046dU, 0x3d8e3461be49aca0U, 0xbd93e72ebe41dc8cU,
  0x3dc443e93d36d54bU, 0x3e1f3ee43d89aee0U, 0x3dac250b3ad829dbU, 0xbd2751edbc8f726cU,
  0x3edafe1b3da32ab5U, 0x3c61c2ef3dc40345U, 0xbe12c1bcbe7e7b54U, 0x3e356ab0bd618a2aU,
  0x3c91f0d7bd18339aU, 0xbc9c80bc3d102d06U, 0xbd4354f63e3dcf4bU, 0x3daa5dedbdfb7002U,
  0xbdca2515bd0a5c40U, 0xbe528344bddb881cU, 0x3e253142bdd28965U, 0xbe580e5dbe4a43bbU,
  0xbd1a7acfbcaf65beU, 0x3dd57e7bbd85404fU, 0x3bd46b52bdb881a1U, 0xbd817dae3e2d12d6U,
  0x3eb724a33d85553fU, 0xbd4c32d6be23d5a6U, 0xbe12daaebdde6c82U, 0x3e0ec064bda2a83aU,
  0x3dabf889bd236f36U, 0x3d83d4793ca3a8efU, 0x3d7c8065bd0b2fd4U, 0xbcc3178dbdab850cU,
  0xbdd390563df77711U, 0x3dbe6e3dbd44c998U, 0xbd31f41b3df6f0e8U, 0x3da1bce2be270f11U,
  0xbd4dd134bda52a87U, 0xbcc981babe5f52b4U, 0xbda5a8b7bd1eacc7U, 0xbd3fd80d3d12356cU,
  0x3d2ac2ac3b296c70U, 0xbd419101bca16159U, 0x3d9d57d53cea5a20U, 0xbd9d32743d26aee6U,
  0xbe8e900dbd7cdcd6U, 0xbd566ddf3e871beeU, 0x3af5be683e4ab4d4U, 0xbddf1650be66dcceU,
  0x3cba5d66bdd7a026U, 0xbe29943dbe1f5b13U, 0x3e016ff63bbaaa30U, 0xbea6666b3c2b80cbU,
  0x3d1565c2bc8e8071U, 0xbe7a52a8be1db3bdU, 0xbda3303abdf398bdU, 0xbd8b5eba3dd2b9a0U,
  0xbc3988a6be1c0745U, 0xbd6dd413bdcff4daU, 0xbe376568bdf17f9aU, 0xbe6ebf5fbc39d104U,
  0xbde6ff6dbdbfadc3U, 0xbd68430a3e3efa82U, 0xbcc847bc3d8f9831U, 0x3c761bdcbe4b2682U,
  0xbc8a0291bda97a85U, 0xbdd1668abe1fc7ecU, 0x3e532262bdd32b62U, 0xbcc3c00dbda59d89U,
  0x3d2cf61e3d71ea78U, 0x3c4a85f3bbf7132dU, 0xbcd46195be011e5eU, 0xbd7d301b3c7aa2b3U,
  0x3dd093aa3d792525U, 0xbd898e66bd4931a1U, 0xbe32f2c33d219a6dU, 0x3ca5dfe5bd5bff1dU,
  0x3d2894d9be70a84dU, 0xbe3147143e2f366bU, 0xbe1a0dbc3e91cd84U, 0x3c4aa824beb39951U,
  0xbe431b04be5a9228U, 0xbe5dadbabdd0919cU, 0x3e215ff1be508c1cU, 0x3e076944be70fa0aU,
  0x3dc82c253d44dad0U, 0x3e203d8dbdd9de4bU, 0xbc49c16ebe6c89b3U, 0xbd87e034bd1b54e6U,
  0x3eb14fe5bd6f970cU, 0xbd7e9be0bd5a24a6U, 0xbe8ef8793e1278d6U, 0x3da148bebe0b6b74U,
  0xbe92cc633dcdfa7aU, 0xbe5463f93e7ff1b2U, 0xbe622805bd043509U, 0xbe0b63873e320d3cU,
  0xbd60d234bdb24b72U, 0x3e1519723df209e8U, 0x3dc9e1a9be220db6U, 0xbdca3b21bd251eccU,
  0xbde37e5bbe2dcca9U, 0xbdf9a33f3c34a3a6U, 0xbde63681bce3c1c4U, 0xbdc025e93c3745e4U,
  0xbe8f5231be0e719cU, 0xbe616b2b3e1b1885U, 0xbc9d22003e8c14aaU, 0xbdd55f99be209abaU,
  0xbe66c2123e426852U, 0xbe3d248f3e69038bU, 0xbe66ce243db9284bU, 0xbd529aa83d661e16U,
  0x3c5d1a8bbe01e1c2U, 0x3e257ca53da17d0aU, 0x3e49c144bde472b7U, 0x3dd0f23ebcf2d63cU,
  0xbdd225c7bcdb15d4U, 0xbe675cfb3e149e42U, 0xbdb7fe7bbd556638U, 0xbe120391bdc7679dU,
  0xbda42865bc2c1c8eU, 0xbe24d3573e0c097aU, 0xbbb254a43e4fc4b3U, 0xbd1361c9bdb54174U,
  0xbe6f644d3de85865U, 0xbd9fac2abe00b03fU, 0xbe4b7e40be495a0eU, 0xbd16a1e93e31f411U,
  0xbe0468d4bd6adc7aU, 0x3e5428773db4dcabU, 0xbd0c74b9be82f76dU, 0x3e1b643ebd55bfccU,
  0xbdd862c7be630188U, 0xbe02ef323d0a84d2U, 0x3db138be3d05df47U, 0xbbfd5471be9114a1U,
  0xbe5331d8bd417de2U, 0xbdfc31153da68942U, 0x3e2255f83e0d56d8U, 0xbe953cb3bd5591bcU,
  0xbca8008d3cdf7b5eU, 0x3dfbe58fbde2e455U, 0x3c23f2e1bc951c9aU, 0x3da0fdcd3ccc4dd3U,
  0xbcf22b493c2dce7cU, 0x3dcfd397bd5d33e2U, 0xbe22a41c3de25267U, 0xbe2431d03d02d398U,
  0x3db13bbabc18c81aU, 0xbc8f670f39310f47U, 0x3d7ffffc3d7259eeU, 0x3de81a8bbd8ec836U,
  0xbc8ea1253d37471eU, 0x3c14f0913dd11c79U, 0x3dd80865be039514U, 0xbc546ed5bc7c6758U,
  0xbd3413b73da4aa7eU, 0x3d73c7b6bc90f926U, 0x3c0a3c15bdb37da1U, 0xbc969c42bd23ddfdU,
